/**
  ******************************************************************************
  * @file    network_data_params.c
  * @author  AST Embedded Analytics Research Platform
  * @date    2025-09-20T18:16:12+0530
  * @brief   AI Tool Automatic Code Generator for Embedded NN computing
  ******************************************************************************
  * Copyright (c) 2025 STMicroelectronics.
  * All rights reserved.
  *
  * This software is licensed under terms that can be found in the LICENSE file
  * in the root directory of this software component.
  * If no LICENSE file comes with this software, it is provided AS-IS.
  ******************************************************************************
  */

#include "network_data_params.h"


/**  Activations Section  ****************************************************/
ai_handle g_network_activations_table[1 + 2] = {
  AI_HANDLE_PTR(AI_MAGIC_MARKER),
  AI_HANDLE_PTR(NULL),
  AI_HANDLE_PTR(AI_MAGIC_MARKER),
};




/**  Weights Section  ********************************************************/
AI_ALIGNED(32)
const ai_u64 s_network_weights_array_u64[31909] = {
  0x101010101010101U, 0x101010101010101U, 0x101010101010101U, 0x101010101010101U,
  0x101010101010101U, 0x101010101010101U, 0x101010101010101U, 0x101010101010101U,
  0x101010101010101U, 0x101010101010101U, 0x101010101010101U, 0x101010101010101U,
  0x101010101010101U, 0x101010101010101U, 0x101010101010101U, 0x101010101010101U,
  0x101010101010101U, 0x101010101010101U, 0x101010101010101U, 0x101010101010101U,
  0x101010101010101U, 0x101010101010101U, 0x101010101010101U, 0x101010101010101U,
  0x101010101010101U, 0x600030607050006U, 0x20000050000U, 0x504000407U,
  0x800000400030006U, 0x4000006020302U, 0x6000000050200U, 0x2020000060006U,
  0x600020000060005U, 0x600000606050000U, 0x100000608040000U, 0x600050000U,
  0x600000400000202U, 0x505050300000004U, 0x602000000060000U, 0x600000005000002U,
  0x40408020500U, 0x600000000050600U, 0x70205000005U, 0x206000000040800U,
  0x6000804000004U, 0x30000060400U, 0x5000008020602U, 0x605000000050400U,
  0x102060806000000U, 0x604000004000003U, 0x702000005000000U, 0x2000000060005U,
  0x106000005050200U, 0x50800000003U, 0x103060600000600U, 0x8000000060504U,
  0x804000400U, 0x402010006U, 0x601060000000205U, 0x800000304000005U,
  0x5070000U, 0x50004000807U, 0x3000005000302U, 0x20002040000U,
  0x20606000004U, 0x3060801060000U, 0x5050000000500U, 0x502010000000200U,
  0x400060000020502U, 0x600000602060000U, 0x400000006060000U, 0x207000000080403U,
  0x400060000040000U, 0x5060200000002U, 0x3060000000006U, 0x600020402U,
  0x200000005050006U, 0x4060602000004U, 0x500000300000800U, 0x50604000000U,
  0x500000200060302U, 0x6000600000002U, 0x400040000020200U, 0x304060200000005U,
  0x5060000080002U, 0x7040300000700U, 0x50600000200U, 0x5060002020000U,
  0x602000005U, 0x100000400030004U, 0x30407050208U, 0x300000204000002U,
  0x30002070000U, 0x200030000000402U, 0x40000020600U, 0x4000500050207U,
  0x405000600U, 0x50600050200U, 0x702060000050002U, 0x305000600000003U,
  0x30608000000U, 0x6000606000003U, 0x606080302010000U, 0x6040006000000U,
  0x4020500050000U, 0x20600000400U, 0x6050005000004U, 0x6000602000002U,
  0x506040502020000U, 0x30000020000U, 0x308020000060005U, 0x50008000000U,
  0x500070200030800U, 0x6000004000004U, 0x200000401000005U, 0x506000004000004U,
  0x50006020000U, 0x6060500000001U, 0x500050000U, 0x200000000060504U,
  0x6000005060602U, 0x200000602040000U, 0x2000204000000U, 0x8060105060000U,
  0x20402000002U, 0x500060700050000U, 0x3040000U, 0x202000207U,
  0x6000004000305U, 0x500000306060700U, 0x600000400030000U, 0x2060602010000U,
  0x40005000008U, 0x400000004000508U, 0x600000208060000U, 0x6000805070000U,
  0x500040000050000U, 0x608060002U, 0x705040000000602U, 0x6000008U,
  0x607030802U, 0x400000700000705U, 0x5050000000507U, 0x205060200000600U,
  0x200020000060000U, 0x205080000U, 0x5000608040100U, 0x2000505000005U,
  0x400040003060000U, 0x40004060000U, 0x600000600000402U, 0x600050402U,
  0x200040700U, 0x408010606U, 0x20201000002U, 0x500000005000804U,
  0x600000003000605U, 0x204060003080000U, 0x401020000000006U, 0x60000070000U,
  0x40506000600U, 0x605060200000004U, 0x50200000000U, 0x206040302020100U,
  0x8040000080000U, 0x5040600000400U, 0x400000200020000U, 0x6000006050005U,
  0x605000600U, 0x40500080305U, 0x400040005000004U, 0x2020008030000U,
  0x5040600000600U, 0x607050000000400U, 0x6050000040006U, 0x504000005080000U,
  0x3000608000000U, 0x600060000000502U, 0x108000000020002U, 0x206060600000503U,
  0x402000000050000U, 0x407000306000000U, 0x50200000005U, 0x506000004U,
  0x2060002040700U, 0x4000400000500U, 0x205000500U, 0x20700060406U,
  0x60002000400U, 0x6050207060100U, 0x40002000004U, 0x50600000205U,
  0x602000006000005U, 0x302000000050604U, 0x60405000000U, 0x402000002000300U,
  0x600000200000605U, 0x507060000000300U, 0x305000000050003U, 0x600000605000002U,
  0x604040000020000U, 0x400000600000306U, 0x601000000000002U, 0x202060602U,
  0x500000800000206U, 0x5030000000603U, 0x200000208030000U, 0x4040400000600U,
  0x200000500060000U, 0x200000200030208U, 0x2060200000500U, 0x6000002050000U,
  0x5000507050000U, 0x300050000000202U, 0x6050500000004U, 0x70408000006U,
  0x604060000050000U, 0x8030606U, 0x204060600U, 0x300000600000502U,
  0x503070106000000U, 0x204000004000008U, 0x202080000050000U, 0x705000000030000U,
  0x200000600000508U, 0x50002050000U, 0x500000302000005U, 0x300000200050100U,
  0x704060505010000U, 0x6000006000006U, 0x30602000002U, 0x40002000005U,
  0x60402030400U, 0x502000000050000U, 0x50005000300U, 0x60405000606U,
  0x2060500000006U, 0x502000600000002U, 0x605080200000000U, 0x605000003U,
  0x40200000307U, 0x60001050700U, 0x50600000005U, 0x406060306000004U,
  0x206000005000000U, 0x40000000705U, 0x6070200030800U, 0x50600000500U,
  0x2050607000002U, 0x2000600000200U, 0x600050208010000U, 0x300000600000503U,
  0x500030400000400U, 0x5020600000006U, 0x700000400000400U, 0x5000002020204U,
  0x502000000000400U, 0x2000000080604U, 0x500080500000400U, 0x605000006000600U,
  0x20000060300U, 0x600050603080200U, 0x6060200000000U, 0x200000005070000U,
  0x400000400000502U, 0x6050000000004U, 0x200000600000607U, 0x602000000040600U,
  0x2000000000207U, 0x600000600000402U, 0x6000200000406U, 0x500030000000502U,
  0x5050002060000U, 0x2000000000306U, 0x5000000060608U, 0x2000305040000U,
  0x205030000060000U, 0x8000600000200U, 0x6060000060200U, 0x4000003080000U,
  0x60607000006U, 0x205000002U, 0x502000206U, 0x200000400020104U,
  0x500040200000600U, 0x8070600000000U, 0x5020000000406U, 0x400000503U,
  0x60600050405U, 0x500000600040000U, 0x30200060508U, 0x200060006000005U,
  0x70202040000U, 0x50006000006U, 0x602000005060600U, 0x6000300000008U,
  0x40003020800U, 0x207060000040003U, 0x406020100000000U, 0x20000030805U,
  0x400000208U, 0x600000505000803U, 0x204060000U, 0x60206080600U,
  0x606000000000006U, 0x500000000020206U, 0x40000060302U, 0x5020800000500U,
  0x500030400U, 0x200000005040206U, 0x3060200000000U, 0x600000403000005U,
  0x6080600000500U, 0x4050000000304U, 0x60204050000U, 0x504000000050300U,
  0x200000600080000U, 0x300000405050608U, 0x300000006040000U, 0x204000002000600U,
  0x40000050600U, 0x60000050502U, 0x40006050500U, 0x3000000060605U,
  0x803000000030400U, 0x5000000060602U, 0x60602070100U, 0x60000020500U,
  0x50002050600U, 0x40000050200U, 0x6060005070201U, 0x504060000000500U,
  0x50400000400U, 0x6020402060000U, 0x602050000020000U, 0x402000000060000U,
  0x500000705U, 0x2040102060600U, 0x203000000080500U, 0x40200000400U,
  0x6040800000006U, 0x200000200000606U, 0x2020000000005U, 0x7020006000000U,
  0x604050000U, 0x2040802060200U, 0x6000001070000U, 0x3000002060800U,
  0x2000600U, 0x6000000080306U, 0x608040600000003U, 0x20000050201U,
  0x500040000000706U, 0x70604010000U, 0x50200060000U, 0x7060006010200U,
  0x305020000U, 0x100040600U, 0x3050006050606U, 0x205000200000800U,
  0x6040607000000U, 0x4060000000200U, 0x5000006000006U, 0x406000500U,
  0x6000205U, 0x4060506000706U, 0x20000030000U, 0x50200080403U,
  0x20400000002U, 0x5060500030800U, 0x4020700000004U, 0x20500000200U,
  0x50504040500U, 0x50006000006U, 0x600000600020005U, 0x60402U,
  0x2050704050200U, 0x60500000500U, 0x300000003U, 0x202040000050308U,
  0x60400000600U, 0x6000604000004U, 0x5040207020000U, 0x200060000U,
  0x600050502U, 0x404000803070100U, 0x500000002000005U, 0x50000060202U,
  0x405000005000005U, 0x50600000803U, 0x608060000U, 0x30605020600U,
  0x60000000504U, 0x600050405000002U, 0x300020000000006U, 0x500000004000008U,
  0x50308010000U, 0x6000006020202U, 0x604000006000600U, 0x2000005000005U,
  0x5050702000005U, 0x404000006U, 0x502000006000600U, 0x20000040005U,
  0x60206000505U, 0x205000006U, 0x301080000060006U, 0x706060000000506U,
  0x6000002000004U, 0x2000006060700U, 0x6060700020000U, 0x405000001U,
  0x400000004050002U, 0x604000006U, 0x500000605000502U, 0x50100060000U,
  0x5010502000005U, 0x40000000600U, 0x600020608020401U, 0x200000500050000U,
  0x502000005000600U, 0x2060000060006U, 0x3000400000200U, 0x800020702000600U,
  0x600000004030000U, 0x504000002000400U, 0x506000302U, 0x6000005030006U,
  0x401080000000600U, 0x2040200000503U, 0x5000002060000U, 0x3050500000700U,
  0x60000060004U, 0x602000005020003U, 0x406020701000000U, 0x50000000005U,
  0x6050600050200U, 0x701000000010000U, 0x40003020805U, 0x204020000020002U,
  0x406000004000000U, 0x500000600000508U, 0x5040600000500U, 0x6000002050000U,
  0x30404050800U, 0x205000002U, 0x305060802060000U, 0x600000600000000U,
  0x700030006000006U, 0x207040005060000U, 0x600020000000000U, 0x5060000060207U,
  0x60200000500U, 0x20002020400U, 0x804050000000205U, 0x606000000080000U,
  0x604000000020705U, 0x2000803000000U, 0x60000070600U, 0x3060204U,
  0x6000004000505U, 0x6020000000600U, 0x200000000000404U, 0x6060504U,
  0x4000006000304U, 0x50002050600U, 0x30608000003U, 0x70406000004U,
  0x308000001000004U, 0x504060000000602U, 0x6000006000002U, 0x20604000004U,
  0x200050005040000U, 0x50600000005U, 0x708010000000602U, 0x200000206000302U,
  0x506040000030000U, 0x400000006000002U, 0x607000004000600U, 0x200060000050002U,
  0x602050000000006U, 0x305080000020003U, 0x500050000020000U, 0x100060403000000U,
  0x4060000000600U, 0x400000400070400U, 0x706000004000002U, 0x80200050501U,
  0x600000203000006U, 0x802040000050000U, 0x5000000020006U, 0x700010000000800U,
  0x40000050802U, 0x400000200020500U, 0x200000205060000U, 0x400000600000803U,
  0x200030800000002U, 0x5000002000007U, 0x605060502000005U, 0x500000603000001U,
  0x4030601000000U, 0x300020000000200U, 0x604040100000002U, 0x608000002000002U,
  0x20505000000U, 0x40000040600U, 0x200000206000502U, 0x6020000060000U,
  0x4000002080504U, 0x4000000050200U, 0x4000002000300U, 0x806020100000006U,
  0x50200000503U, 0x802000500000006U, 0x8000500000006U, 0x4020008030400U,
  0x6020200000600U, 0x50200000600U, 0x20006000005U, 0x20508000204U,
  0x5000002020500U, 0x7080500060000U, 0x405000300000200U, 0x505010000040000U,
  0x6000504U, 0x502020802U, 0x400000700000505U, 0x2040000000206U,
  0x5020003080000U, 0x6050200000600U, 0x500060705000000U, 0x40000000602U,
  0x600000005000603U, 0x604000306000004U, 0x40603000000U, 0x602000006000004U,
  0x50400050501U, 0x6000002040200U, 0x80000060500U, 0x6000004070805U,
  0x300000006050000U, 0x600000502010008U, 0x400000002000000U, 0x506000000050500U,
  0x106000000060000U, 0x8000000060002U, 0x2060607000200U, 0x5000002000004U,
  0x506040000000406U, 0x500030000000006U, 0x504060800000005U, 0x3070000000005U,
  0x50003000005U, 0x40005000206U, 0x8000506020100U, 0x20404000006U,
  0x4060003040000U, 0x200060000040000U, 0x802010200000006U, 0x405000000040006U,
  0x800000302U, 0x20000060605U, 0x300000200000204U, 0x5000600000806U,
  0x40602000006U, 0x600050000020005U, 0x500050200020000U, 0x300050502000000U,
  0x500000500050000U, 0x800000200000606U, 0x803000000000400U, 0x506000006000200U,
  0x5000200000500U, 0x5060502000600U, 0x500000400000200U, 0x3000002000305U,
  0x205040800000400U, 0x20600000500U, 0x40005000500U, 0x105020000060002U,
  0x5020000000005U, 0x2040800000006U, 0x60700000500U, 0x8050500000500U,
  0x80000000200U, 0x2000604060102U, 0x50806000003U, 0x2020200060000U,
  0x60400000300U, 0x30602060200U, 0x20003000005U, 0x400000008000005U,
  0x60608U, 0x60200060605U, 0x200080306000005U, 0x202060600000000U,
  0x500000500000000U, 0x502000005000002U, 0x600000000000605U, 0x500060000050608U,
  0x600000200000307U, 0x205040000000600U, 0x4000006060000U, 0x200040000020400U,
  0x6000006020000U, 0x804050606000002U, 0x6080000000007U, 0x500050200000002U,
  0x406000006000006U, 0x2000300000400U, 0x202060005000000U, 0x608040600000000U,
  0x1000007050005U, 0x4000002050500U, 0x50601050000U, 0x7000004000600U,
  0x5050006010700U, 0x200000804020000U, 0x7030500000000U, 0x200000006000005U,
  0x5000000080207U, 0x206000800U, 0x200000400020302U, 0x6000005000005U,
  0x602020003080100U, 0x602000002000006U, 0x506020000040000U, 0x40000060000U,
  0x20204000205U, 0x205000006U, 0x8030006040200U, 0x6000300000500U,
  0x605050602000004U, 0x3040000080000U, 0x805050000U, 0x505020100000400U,
  0x702000005000308U, 0x2060000040000U, 0x400020800000004U, 0x205000006000003U,
  0x208020000000600U, 0x60000020002U, 0x800000500020005U, 0x2060405040000U,
  0x60600000200U, 0x600020604000002U, 0x204000007000000U, 0x5030000020600U,
  0x204040701000000U, 0x5060000030002U, 0x4060600000200U, 0x802020000000500U,
  0x4040000060000U, 0x8030500000200U, 0x506000500020000U, 0x405020000060000U,
  0x500000000000502U, 0x5000500000406U, 0x8050502000002U, 0x600000400U,
  0x604020005070601U, 0x208000000U, 0x20506040200U, 0x3050600000005U,
  0x2000400000600U, 0x208050400U, 0x400000800000806U, 0x40205060000U,
  0x605050000000705U, 0x200000300000005U, 0x308020600000003U, 0x50400000700U,
  0x308010000000005U, 0x407020600U, 0x700000500000605U, 0x600000400000502U,
  0x202070200000006U, 0x204000005000006U, 0x504000200000000U, 0x300060502000000U,
  0x6020000000602U, 0x302080700000500U, 0x40000U, 0x2040308060701U,
  0x50600000600U, 0x2000506000002U, 0x805000002000400U, 0x605000002000002U,
  0x4000004080000U, 0x806000600060500U, 0x300060000020000U, 0x60000000405U,
  0x2080600050405U, 0x400000600020000U, 0x6050202040000U, 0x600060000000200U,
  0x30508000000U, 0x6000002000607U, 0x50207000002U, 0x500000204000006U,
  0x6040004000000U, 0x3060600000002U, 0x60000040700U, 0x200000006020002U,
  0x400000507060006U, 0x2050000000006U, 0x2000007020000U, 0x60001020500U,
  0x60606000002U, 0x2000000U, 0x402020005080106U, 0x207000005000000U,
  0x700000006000600U, 0x306040006U, 0x3000602000600U, 0x102080200000800U,
  0x600000504U, 0x5000006050003U, 0x20006040000U, 0x20202000002U,
  0x100000002000006U, 0x200000200020308U, 0x5000000020606U, 0x600000002050200U,
  0x404060700000600U, 0x6000004U, 0x605000006020500U, 0x80000060200U,
  0x600000005040008U, 0x50003000404U, 0x60005000007U, 0x600050402050206U,
  0x6000601000000U, 0x408000003000600U, 0x200000205U, 0x100000700000601U,
  0x600000005060605U, 0x601000000050000U, 0x5000004050208U, 0x206000005000200U,
  0x200000002000002U, 0x40000050506U, 0x502060000U, 0x2040008U,
  0x500000002030402U, 0x6050200000300U, 0x6030000060006U, 0x200000407000008U,
  0x306080402000000U, 0x206000004000002U, 0x2000606000000U, 0x40402030000U,
  0x20008000004U, 0x5000000060506U, 0x5060608000500U, 0x600000006020000U,
  0x600060000040002U, 0x506040202010000U, 0x300000005000007U, 0x500000400000605U,
  0x5060500000400U, 0x50000040800U, 0x306060000040006U, 0x5000004000008U,
  0x502060000000402U, 0x5000004U, 0x60003050506U, 0x2000000070408U,
  0x500030000060600U, 0x806000100000006U, 0x20000000307U, 0x2080202030100U,
  0x800000704020000U, 0x8000002040000U, 0x806060200U, 0x5040207050000U,
  0x600000606000000U, 0x50507040000U, 0x604020000U, 0x700000506060600U,
  0x8050000050006U, 0x50704030000U, 0x5020000060000U, 0x4000800U,
  0x500060605020006U, 0x700000200020000U, 0x50000050500U, 0x803000005050700U,
  0x502000006000006U, 0x606000000U, 0x7000803010202U, 0x50000050600U,
  0x500000004000506U, 0x601000000030502U, 0x804000006000000U, 0x601020000000205U,
  0x606000000000000U, 0x804030000000202U, 0x6020000000200U, 0x206040800000002U,
  0x1000200000000U, 0x502080000000404U, 0x5000002020003U, 0x500000006060300U,
  0x204000007000007U, 0x2000000020006U, 0x2060000050005U, 0x5060704000006U,
  0x400000705000000U, 0x600020302000000U, 0x200050000060006U, 0x206000002020000U,
  0x60700000200U, 0x502070003080000U, 0x604000002000006U, 0x405050000040000U,
  0x602040400000000U, 0x2000004000006U, 0x6020000020400U, 0x502020601000000U,
  0x600000700000406U, 0x406000004000007U, 0x300000002000002U, 0x400000500060200U,
  0x5040600000002U, 0x600000400000202U, 0x3020000000408U, 0x4000300050000U,
  0x30006080500U, 0x30405020600U, 0x402020000040000U, 0x601000000000006U,
  0x200000306060608U, 0x400000006020000U, 0x605000000000505U, 0x604000000020400U,
  0x202030606000000U, 0x400000505000000U, 0x308070000U, 0x50003000600U,
  0x6000600030206U, 0x400000606000005U, 0x30000050400U, 0x5050202U,
  0x200000305000003U, 0x206060801000000U, 0x400000302U, 0x60000030207U,
  0x200030000050005U, 0x600000400000204U, 0x206020700050000U, 0x2050000020000U,
  0x606060000000600U, 0x400000208U, 0x8030000000207U, 0x50000050504U,
  0x605040002000004U, 0x401000006000000U, 0x30606000602U, 0x204060200000005U,
  0x50006000000U, 0x3000000050305U, 0x600050804000005U, 0x600000200000002U,
  0x5040000000407U, 0x504000006U, 0x2020700050305U, 0x500050404000000U,
  0x600050000U, 0x400020206U, 0x50000050403U, 0x2000402U,
  0x500000006020606U, 0x500000000060405U, 0x800050005020000U, 0x3000002060000U,
  0x5040302080200U, 0x4000005070000U, 0x4000005020600U, 0x2070500000500U,
  0x4070200000004U, 0x504080000040000U, 0x404000000020003U, 0x400000200000003U,
  0x2000005000206U, 0x603020000000005U, 0x200050000000506U, 0x604000600000500U,
  0x6000005000002U, 0x504040703020000U, 0x500080000080000U, 0x604070000080000U,
  0x602000002000004U, 0x606060000060000U, 0x6000000040000U, 0x202060006U,
  0x304000000080006U, 0x60000050606U, 0x2000000050005U, 0x600000500060500U,
  0x205000000050007U, 0x70008000600U, 0x206000006000202U, 0x6000300000002U,
  0x2080202040700U, 0x30800000200U, 0x30804000005U, 0x2000600000005U,
  0x200000400000604U, 0x600000006000608U, 0x805000006000805U, 0x600000000040000U,
  0x200000203050505U, 0x4000000070000U, 0x502060008000006U, 0x60000000500U,
  0x206020202U, 0x300000000030506U, 0x8000002050002U, 0x200000505000200U,
  0x80604020000U, 0x4000500000200U, 0x602020701000002U, 0x500000600000208U,
  0x405000002000006U, 0x505000006000005U, 0x5050604000000U, 0x80400000300U,
  0x206000006000500U, 0x20300000006U, 0x800000402060700U, 0x204000000040200U,
  0x600000505U, 0x30602060400U, 0x200000500000002U, 0x502060200000200U,
  0x50600000701U, 0x80400000006U, 0x5060401000002U, 0x8030200000004U,
  0x5000002040000U, 0x70003040800U, 0x200020000000604U, 0x600060600000200U,
  0x200000000060201U, 0x300020000000805U, 0x5000602020000U, 0x4000008020200U,
  0x8000000020600U, 0x2000206050000U, 0x200010002000500U, 0x504050500010000U,
  0x706000000U, 0x602000005000308U, 0x200050207000000U, 0x800000500000504U,
  0x3000006000006U, 0x2000400000606U, 0x205000300060800U, 0x204050000000000U,
  0x20006000800U, 0x600000006000605U, 0x50400060007U, 0x404000600U,
  0x3020800000500U, 0x507000006000504U, 0x200030606000000U, 0x20604000000U,
  0x407000000020200U, 0x60000040504U, 0x102060000000006U, 0x203000600000604U,
  0x603060000050000U, 0x4000005000006U, 0x200000103000007U, 0x100030800000400U,
  0x400000205U, 0x200000200050602U, 0x405060000000500U, 0x700030800000100U,
  0x2000000000006U, 0x202020706000000U, 0x5000000080000U, 0x80203000000U,
  0x500000502000006U, 0x5050201060000U, 0x6000006080300U, 0x200000000050700U,
  0x800000006000204U, 0x2000006000400U, 0x7040506U, 0x20000030207U,
  0x3080205000005U, 0x30800000400U, 0x6060002000006U, 0x40200000500U,
  0x600000000020006U, 0x3000706060400U, 0x402080000U, 0x506000007000002U,
  0x400040000000206U, 0x102060000000300U, 0x500000004000308U, 0x400000504U,
  0x200000403000002U, 0x401050000U, 0x20405070000U, 0x3080000050000U,
  0x500000700000206U, 0x5020000000602U, 0x205060000000600U, 0x2040000060006U,
  0x3020200000500U, 0x6000005000600U, 0x6060000050005U, 0x402000000000507U,
  0x5000005080402U, 0x40000020700U, 0x5000006000308U, 0x200060207000005U,
  0x200000400030000U, 0x30202060000U, 0x50000050004U, 0x200000500040003U,
  0x50006080201U, 0x206040200U, 0x600000500000706U, 0x6040000030005U,
  0x500020706040000U, 0x600000005050000U, 0x505000004U, 0x60600000606U,
  0x6050601000002U, 0x50000000604U, 0x3000000050406U, 0x804010600000800U,
  0x305000000060706U, 0x60005000000U, 0x500000500020807U, 0x208030000U,
  0x405060200U, 0x202060000050004U, 0x300000003000006U, 0x5080200000006U,
  0x30000060504U, 0x500000500000307U, 0x50107000006U, 0x400020300000006U,
  0x506000000020002U, 0x200000400040000U, 0x5000300050200U, 0x2060705000005U,
  0x600000800000500U, 0x807060600000600U, 0x506000004000000U, 0x8020000000604U,
  0x503010000000800U, 0x800000002040008U, 0x20000040600U, 0x400000504050005U,
  0x2080000050000U, 0x6000000020500U, 0x60000060806U, 0x602000204U,
  0x2030000060200U, 0x5020000050008U, 0x402000004000006U, 0x800000002010502U,
  0x204000006000003U, 0x10200000100U, 0x30004020100U, 0x6040000000406U,
  0x802010600000600U, 0x206000006000000U, 0x600000802U, 0x5060200000002U,
  0x205000000050006U, 0x20806000006U, 0x70600000400U, 0x700000002070003U,
  0x60500020806U, 0x5000206000003U, 0x308000002000200U, 0x40000020600U,
  0x200000000040602U, 0x2020600000803U, 0x205000600000000U, 0x70504000004U,
  0x500000602020000U, 0x80400020000U, 0x6050002060600U, 0x4070800000800U,
  0x200020000020000U, 0x504050502070000U, 0x102000001000000U, 0x204000005000003U,
  0x600050402000000U, 0x606050500000000U, 0x800000400000000U, 0x600000200000005U,
  0x405030600U, 0x20000060406U, 0x40006050600U, 0x70306000006U,
  0x700000505050000U, 0x602000006000004U, 0x4070000050005U, 0x508040000U,
  0x607000000000505U, 0x2000500000005U, 0x20804060200U, 0x4000002000002U,
  0x5050402000006U, 0x806000000000200U, 0x400020000040206U, 0x604000300000000U,
  0x404010002000000U, 0x6020000000005U, 0x500080304000000U, 0x4000700000005U,
  0x5020000050600U, 0x506020003080000U, 0x6040000060000U, 0x6060005070000U,
  0x202010000000600U, 0x600050508000005U, 0x3000005050000U, 0x200020700U,
  0x800050206U, 0x6000002080204U, 0x304000000050200U, 0x405050000000500U,
  0x503000000060507U, 0x20800000000U, 0x6060706000006U, 0x504000000020500U,
  0x500050000000006U, 0x600000004000300U, 0x50006020202U, 0x8000000030400U,
  0x500000604030500U, 0x70400000004U, 0x406000004U, 0x6040008030507U,
  0x402000600000600U, 0x4030804000000U, 0x20200000600U, 0x4050002000006U,
  0x5020604030000U, 0x800000200000500U, 0x6060500000200U, 0x802010000050000U,
  0x505000002000302U, 0x30700000500U, 0x6060002000003U, 0x20000020400U,
  0x300000300040606U, 0x50000060500U, 0x3000006050202U, 0x30000030200U,
  0x5060507000006U, 0x4060000030002U, 0x6000005000006U, 0x5050000020003U,
  0x600040006000004U, 0x106040200000500U, 0x50502000006U, 0x802000005000005U,
  0x600000505U, 0x801000005000006U, 0x108000005000003U, 0x606050000050000U,
  0x300000606080000U, 0x5000002010000U, 0x60005060000U, 0x20004000500U,
  0x2020003050605U, 0x20000000200U, 0x3000200060006U, 0x50001060600U,
  0x3000600050500U, 0x8000005020200U, 0x802000006000600U, 0x500000606U,
  0x6000006030005U, 0x200030201040800U, 0x60000030000U, 0x600000002020006U,
  0x207000005U, 0x400000202U, 0x6050503020201U, 0x20800000700U,
  0x50406000006U, 0x200000606000005U, 0x506000002050000U, 0x2000002000003U,
  0x2060804000200U, 0x600020000050000U, 0x800000802030000U, 0x600020500U,
  0x40004060402U, 0x606000000060002U, 0x602070000U, 0x5060308000005U,
  0x204000200000001U, 0x200000006000005U, 0x6060000000504U, 0x204040100000400U,
  0x204000000U, 0x7000400050600U, 0x704000000000600U, 0x4000000050002U,
  0x20500020600U, 0x4050202010000U, 0x208000005U, 0x700000006040803U,
  0x6060400000004U, 0x600000600000500U, 0x8020202000006U, 0x500000500030000U,
  0x308000000060200U, 0x5000600050200U, 0x400000005050600U, 0x604000505040000U,
  0x402000002000000U, 0x200030801000000U, 0x50000060604U, 0x500000400000605U,
  0x606000000000205U, 0x50204070000U, 0x602080000000002U, 0x205040700000002U,
  0x600000000050000U, 0x2000505U, 0x5000000070504U, 0x606050408010000U,
  0x3000005000002U, 0x505060000000002U, 0x405070000040000U, 0x5000006U,
  0x600020003080206U, 0x6060000020000U, 0x6000005020400U, 0x2070400000600U,
  0x600060000000505U, 0x202020401000000U, 0x803000000080002U, 0x600000002000006U,
  0x200000002080002U, 0x600000500000208U, 0x80402030000U, 0x605060000070008U,
  0x200040000080000U, 0x60506050000U, 0x802070000000002U, 0x60000000405U,
  0x60504000006U, 0x4000002060000U, 0x200000005020300U, 0x40000000405U,
  0x2000206020106U, 0x6060500030000U, 0x200000500000500U, 0x500080000060003U,
  0x602000002000006U, 0x6000007000504U, 0x500020300000200U, 0x500060602000000U,
  0x5000608000000U, 0x800000006000500U, 0x4040202010003U, 0x20600000400U,
  0x60205000005U, 0x20607050000U, 0x504000004U, 0x502000002060200U,
  0x50000040100U, 0x5000006060000U, 0x500060600U, 0x200060000060000U,
  0x308000000000005U, 0x4060002010200U, 0x400000605040000U, 0x4000600000000U,
  0x600000004020200U, 0x605010200000200U, 0x700000400000205U, 0x2000200000002U,
  0x505000002000006U, 0x50000U, 0x20500020002U, 0x505080500000004U,
  0x30000070400U, 0x60005000600U, 0x80002020605U, 0x604030000000207U,
  0x6000005000000U, 0x6070606080200U, 0x4000002070000U, 0x600030600U,
  0x200000004050506U, 0x8030000000400U, 0x5000006020002U, 0x204050400U,
  0x400050006000005U, 0x700030501080000U, 0x600000400000505U, 0x700000006000004U,
  0x102020006U, 0x40204000300U, 0x40006000006U, 0x70004050600U,
  0x704020400U, 0x206000005U, 0x60002050602U, 0x405000000040002U,
  0x200000605U, 0x202010608000006U, 0x500000200000703U, 0x200000600040000U,
  0x600000002000302U, 0x704010200030000U, 0x500020000060000U, 0x600000504060000U,
  0x2010406000000U, 0x2020000000006U, 0x500000400000600U, 0x605000004000506U,
  0x206070000000000U, 0x5050000000505U, 0x40805060000U, 0x50000080500U,
  0x200060506000001U, 0x60003000000U, 0x204000005030807U, 0x5000004000002U,
  0x500000204020500U, 0x6000505000000U, 0x6060003080000U, 0x4020500000000U,
  0x50304000600U, 0x200080400000002U, 0x506070200000500U, 0x500030000060000U,
  0x208040000040000U, 0x70000020403U, 0x300000500000507U, 0x50000040500U,
  0x600000502000507U, 0x508020100000000U, 0x500000007000304U, 0x7030000000507U,
  0x2040600000400U, 0x402000005U, 0x2040002040600U, 0x20005040000U,
  0x5000600020800U, 0x5000006050600U, 0x8000603050000U, 0x500050000000606U,
  0x6060004070000U, 0x60200000500U, 0x70408010600U, 0x6000000060206U,
  0x804020600000200U, 0x6000000020000U, 0x800000500060003U, 0x50207000301U,
  0x202000004U, 0x704000305U, 0x200050007060000U, 0x700000005060000U,
  0x205000002000202U, 0x201000000020000U, 0x706030402U, 0x406020000000206U,
  0x3020000020000U, 0x40608060000U, 0x604000006000006U, 0x502040000000002U,
  0x4050000000406U, 0x600000300000600U, 0x402000000060002U, 0x200000400030002U,
  0x5070403060000U, 0x60505000000U, 0x805000002000004U, 0x600060000040003U,
  0x508060201000000U, 0x702000002000300U, 0x2000600000005U, 0x60003080400U,
  0x2000000000204U, 0x600000200030608U, 0x40400050000U, 0x8000505060700U,
  0x4020004000006U, 0x50408050000U, 0x400000006000600U, 0x406000302U,
  0x207020606000000U, 0x802000005000000U, 0x4000000040003U, 0x208020000020003U,
  0x500000406070000U, 0x406020600000000U, 0x600000600000804U, 0x400050500000002U,
  0x6020000040000U, 0x4040003000002U, 0x3040502080000U, 0x5000400000700U,
  0x502000600U, 0x6000005020606U, 0x502080106000000U, 0x6000500000600U,
  0x50005000002U, 0x7040000050506U, 0x604050500000006U, 0x3000000U,
  0x1000600050503U, 0x602000005000800U, 0x5000006000600U, 0x606040208000005U,
  0x5050000020000U, 0x4050600000300U, 0x20500000500U, 0x20006040600U,
  0x50202000000U, 0x6000500000503U, 0x300040800060500U, 0x200050000050000U,
  0x806000000050004U, 0x402000000060302U, 0x5000005040000U, 0x5080506050000U,
  0x200000600000400U, 0x50000080005U, 0x4000002020205U, 0x50000060500U,
  0x806000002000205U, 0x200080000050000U, 0x50600060003U, 0x2050202000005U,
  0x6000400000200U, 0x50300000300U, 0x2000004040404U, 0x2060106000000U,
  0x600000002000006U, 0x200020700000205U, 0x207050000000000U, 0x6000002020300U,
  0x5000000050400U, 0x604020000000206U, 0x400000006000500U, 0x400000806000007U,
  0x3040606060000U, 0x20000030000U, 0x306040204U, 0x800000500000504U,
  0x6020000060002U, 0x6070003080000U, 0x60002070000U, 0x3050208020100U,
  0x200000603000005U, 0x60500020000U, 0x70400050600U, 0x6080500020000U,
  0x504000003U, 0x600020206000003U, 0x50000040800U, 0x600000608000603U,
  0x200000405020000U, 0x2050507000000U, 0x500000400000400U, 0x204050207000000U,
  0x8000006000005U, 0x60005000200U, 0x200000005020400U, 0x505000000000505U,
  0x6020700000206U, 0x3000600000600U, 0x600000402060400U, 0x30500000000U,
  0x40400060006U, 0x60606000006U, 0x202000205U, 0x600000008020107U,
  0x20200030000U, 0x6010205060800U, 0x600050000000500U, 0x102000300000004U,
  0x2000600000006U, 0x600020002020100U, 0x500000502060000U, 0x5000602000000U,
  0x606040000000000U, 0x600000000020206U, 0x40000060200U, 0x800000502U,
  0x606000006000002U, 0x400000004080302U, 0x6080400000004U, 0x40200000600U,
  0x6050204020000U, 0x800000200020000U, 0x80205020000U, 0x205020800000000U,
  0x500000700000502U, 0x300000600040000U, 0x4050600020000U, 0x7060000000007U,
  0x703080000000500U, 0x607000000000506U, 0x500000500000402U, 0x60200000005U,
  0x402020000000602U, 0x504000000040700U, 0x604040000000005U, 0x2000000000200U,
  0x20002050604U, 0x100000400000406U, 0x500000002000500U, 0x6000004030604U,
  0x60000060200U, 0x403000005000204U, 0x208060000020000U, 0x40000000500U,
  0x80502020401U, 0x6000006000006U, 0x2000004050300U, 0x505000000060600U,
  0x802010000000200U, 0x2060000050306U, 0x200000302020000U, 0x200000200030000U,
  0x600000205000600U, 0x5000204020000U, 0x4000300000008U, 0x305040204000006U,
  0x402000002000006U, 0x6000000U, 0x602020006060008U, 0x2000600000000U,
  0x500030000020006U, 0x50000020607U, 0x20000000506U, 0x606000004020206U,
  0x701000006000000U, 0x202000000020602U, 0x505000000060000U, 0x20000070500U,
  0x605050108020600U, 0x60006000000U, 0x4000006020003U, 0x5000600U,
  0x200050000000604U, 0x600060106040000U, 0x800000000020000U, 0x40107060003U,
  0x405000002U, 0x500000400000005U, 0x5000006020506U, 0x60100000600U,
  0x206040601080000U, 0x3000004000006U, 0x3070005000002U, 0x402000300060000U,
  0x5020000040000U, 0x200020000060005U, 0x500060000050004U, 0x204040005010000U,
  0x2000002000006U, 0x502000600000004U, 0x60400000600U, 0x602060305010500U,
  0x2000005000000U, 0x700000202020200U, 0x600000800050000U, 0x6020004060000U,
  0x2000200000004U, 0x402080000000008U, 0x3000000030506U, 0x300000001020600U,
  0x5000500000400U, 0x400000400050000U, 0x601000000000506U, 0x20704000308U,
  0x407000005U, 0x5000005040207U, 0x200000002000600U, 0x8000005060406U,
  0x60500000500U, 0x60502060000U, 0x60003000600U, 0x406060205U,
  0x4010206000000U, 0x70000070803U, 0x6030000000204U, 0x60205000008U,
  0x300050100000002U, 0x400060000000406U, 0x200000606060000U, 0x600000006050000U,
  0x20406000308U, 0x200000205000002U, 0x60406060000U, 0x20006000004U,
  0x5000605020600U, 0x506000000000400U, 0x600020800060600U, 0x5000403000000U,
  0x600000201000600U, 0x202060402010000U, 0x402000000030000U, 0x50300000400U,
  0x200000200030600U, 0x8060000000202U, 0x3080200000300U, 0x600000400000706U,
  0x600000206000004U, 0x4000000050000U, 0x7000004030506U, 0x505000000080600U,
  0x600000200U, 0x202000008000405U, 0x40000020004U, 0x3060206080200U,
  0x20500000700U, 0x50204000006U, 0x706000002000005U, 0x500000506U,
  0x200000004080600U, 0x60000030606U, 0x800000802U, 0x20802000204U,
  0x200000002050700U, 0x600030800000002U, 0x400000007U, 0x5040000050605U,
  0x2080403000000U, 0x60500000600U, 0x2050002000006U, 0x602010600000600U,
  0x2000000050005U, 0x204050000020005U, 0x500000800000002U, 0x606040300000500U,
  0x5040000000002U, 0x500000402050000U, 0x701060000000001U, 0x5030500000802U,
  0x20200000600U, 0x6030005000003U, 0x407050008030000U, 0x50000020000U,
  0x206000706U, 0x50000020602U, 0x5070008040600U, 0x602000001000006U,
  0x100000003060000U, 0x604060005U, 0x20000000606U, 0x200000506030600U,
  0x400020005050000U, 0x50600060000U, 0x402000406000006U, 0x406020200000000U,
  0x400000300000505U, 0x500000002000005U, 0x600000600050006U, 0x4020000000804U,
  0x302060400000200U, 0x20000000200U, 0x506030108000005U, 0x407020000000004U,
  0x505000004000002U, 0x506050000040000U, 0x60000040000U, 0x3000007000306U,
  0x504000000020202U, 0x705050501000000U, 0x20700000004U, 0x205060000000600U,
  0x600000500000400U, 0x20000050402U, 0x70606000000U, 0x5000006020200U,
  0x406080200U, 0x600000205U, 0x200000004060506U, 0x200000000050806U,
  0x600000500000408U, 0x202060600000200U, 0x6000003000006U, 0x7040006000006U,
  0x608050200000400U, 0x204000000U, 0x506000308020100U, 0x5000006000006U,
  0x400000706020400U, 0x50000050000U, 0x20300050605U, 0x305020400000600U,
  0x605000005000000U, 0x500000600040000U, 0x60704000306U, 0x5000300000005U,
  0x400000600000002U, 0x600000507000305U, 0x706000000U, 0x100060002040500U,
  0x4000200000500U, 0x5050007060200U, 0x200020700000300U, 0x508030200000000U,
  0x207020000U, 0x402060000060006U, 0x204000007000002U, 0x200020000040000U,
  0x406060000U, 0x6020106000004U, 0x60005060600U, 0x4050405020000U,
  0x20000060000U, 0x604000005000406U, 0x204000000000600U, 0x500000606000300U,
  0x3080000060000U, 0x206000000050606U, 0x200060000070000U, 0x206000000040002U,
  0x105020404U, 0x60000000606U, 0x100000500010002U, 0x600000503080005U,
  0x5000006040000U, 0x604030400U, 0x200000000040006U, 0x200000006060400U,
  0x6020200000000U, 0x200000600000408U, 0x200000606U, 0x700060002000006U,
  0x6000600000506U, 0x500000200050400U, 0x706080400000002U, 0x306000002000005U,
  0x200020000050000U, 0x203000006000002U, 0x8050000020006U, 0x2070600000600U,
  0x501060606000000U, 0x606040400000000U, 0x200000000020000U, 0x306040002U,
  0x208050000000006U, 0x5000000060600U, 0x700000000060600U, 0x2000002080502U,
  0x3000005000600U, 0x2000202000300U, 0x802070604030000U, 0x205000000060000U,
  0x8000005000008U, 0x60602000800U, 0x6000505020000U, 0x50706000006U,
  0x40005000004U, 0x502040006U, 0x500000402070000U, 0x40502000005U,
  0x408000003000004U, 0x6060003U, 0x200000500000406U, 0x40005050606U,
  0x4000308040000U, 0x40000020600U, 0x506050202000002U, 0x200000308000000U,
  0x700000000060000U, 0x50002050406U, 0x50000060004U, 0x800000502U,
  0x406060200U, 0x4000600000803U, 0x6060402020000U, 0x504000000050600U,
  0x40400000005U, 0x6060408000002U, 0x60605000000U, 0x6040800000600U,
  0x500000500000405U, 0x2000000040004U, 0x406010000020005U, 0x60600020006U,
  0x602000308020000U, 0x602040000040000U, 0x2050000050000U, 0x408000003060000U,
  0x4000200000600U, 0x50002060500U, 0x6000300000502U, 0x200000406040500U,
  0x8000002000003U, 0x60007000500U, 0x3080400000506U, 0x3020006000000U,
  0x502000005U, 0x600000000060605U, 0x605000006000602U, 0x200040000050000U,
  0x50605000000U, 0x4050800000006U, 0x6020003000002U, 0x2040400000400U,
  0x50006000002U, 0x600000005000204U, 0x3000000060106U, 0x502000607U,
  0x10205U, 0x30706000106U, 0x606000000080400U, 0x60000000604U,
  0x302050000020006U, 0x6060000080002U, 0x6020800000600U, 0x2000002060000U,
  0x60607000600U, 0x600030200020000U, 0x405000006000600U, 0x400000400000205U,
  0x6000002000006U, 0x305040000000505U, 0x500000806040000U, 0x600000300020000U,
  0x300000002000503U, 0x506000008U, 0x6000006050002U, 0x200000803060200U,
  0x506060100000000U, 0x504000000000000U, 0x206070002U, 0x205000200U,
  0x400020000030202U, 0x5060500080000U, 0x208060000000200U, 0x306000500U,
  0x408020000000604U, 0x4040000050003U, 0x6000200000400U, 0x3050506000002U,
  0x604080000050000U, 0x500050000060000U, 0x605020402010000U, 0x506040000000300U,
  0x50000050000U, 0x500000600060306U, 0x304000400000200U, 0x500050408000000U,
  0x3000005000002U, 0x600050206000004U, 0x60502000000U, 0x200050500000400U,
  0x60000060600U, 0x6050000040800U, 0x6000505060000U, 0x20504060000U,
  0x602010000040000U, 0x200000603020002U, 0x2000002060000U, 0x702030400U,
  0x500030202080000U, 0x600000006050000U, 0x6040500000300U, 0x605080000000002U,
  0x3000006000200U, 0x400000000060202U, 0x605000607U, 0x500060000020005U,
  0x806040205010000U, 0x308000002000007U, 0x800000000050000U, 0x5000005050402U,
  0x6000000050600U, 0x200020706000003U, 0x70404000000U, 0x200050605040000U,
  0x6020700000800U, 0x60702000000U, 0x205030000040003U, 0x50004000000U,
  0x600030505080100U, 0x6020200000007U, 0x300000600000300U, 0x5060700U,
  0x600000202060607U, 0x600060000U, 0x3000506040200U, 0x206000005000006U,
  0x20003000006U, 0x80606000005U, 0x4000005080001U, 0x405000600000600U,
  0x704000006000308U, 0x206000004000000U, 0x3000000000504U, 0x20406050800U,
  0x5000005000004U, 0x704060000000504U, 0x200000006U, 0x4080005020002U,
  0x6000600000400U, 0x502020200U, 0x200000200000503U, 0x500050000000305U,
  0x605000000000000U, 0x500000003050705U, 0x800000802050000U, 0x2000008030000U,
  0x2000505060000U, 0x60400000003U, 0x605060003070800U, 0x2040000060000U,
  0x300050200000200U, 0x206000006000005U, 0x605040000000600U, 0x506000200000700U,
  0x604000000020000U, 0x105000500040006U, 0x800020500000000U, 0x8000600000500U,
  0x3020807000006U, 0x40600000400U, 0x506000500U, 0x304020000060606U,
  0x8060000000600U, 0x505020005070000U, 0x20000U, 0x4000000040306U,
  0x3080602050100U, 0x205000002000007U, 0x800000006040000U, 0x2080404070000U,
  0x4000600000600U, 0x500000004050200U, 0x203000006000006U, 0x2060600000800U,
  0x606070000050000U, 0x200000506000005U, 0x8020400000002U, 0x800000805000006U,
  0x505060006000000U, 0x60500000200U, 0x208050100000005U, 0x500000002040003U,
  0x6050000000605U, 0x5000506040000U, 0x207040000U, 0x200050000060500U,
  0x500030005020000U, 0x6050400000600U, 0x306080000020006U, 0x4070000050000U,
  0x600000308000000U, 0x70000000505U, 0x600000206020201U, 0x5000002020000U,
  0x5050500U, 0x500000204000602U, 0x505050000U, 0x40207000600U,
  0x100000006060000U, 0x200000600060507U, 0x600000002000004U, 0x600000400010200U,
  0x502060700060000U, 0x600000002020000U, 0x60000080004U, 0x6080000060602U,
  0x20006040000U, 0x600050006060200U, 0x504020000060000U, 0x600030000000600U,
  0x802000002000005U, 0x20005060003U, 0x700000700000005U, 0x605000005000200U,
  0x2000200000000U, 0x3000000050401U, 0x50602020000U, 0x505060600000600U,
  0x600000300000300U, 0x806000004000300U, 0x507080000000003U, 0x2000006020005U,
  0x600000600050600U, 0x405000300000005U, 0x700000200000006U, 0x200050405U,
  0x5040302010000U, 0x806040000020006U, 0x507000000040000U, 0x400020000060006U,
  0x200000500060000U, 0x2000006060806U, 0x800000000050200U, 0x2000306040000U,
  0x6000205000002U, 0x602060700000002U, 0x20600000300U, 0x20000050300U,
  0x600060000050006U, 0x4020504000005U, 0x700030000U, 0x208020704U,
  0x500000500000306U, 0x200000600000500U, 0x600000308010406U, 0x4000006060000U,
  0x400000200050600U, 0x607000000000400U, 0x2000500000308U, 0x501000004000200U,
  0x204000000060600U, 0x600000500000600U, 0x200000200000804U, 0x202000005000005U,
  0x305020000000000U, 0x3000400000006U, 0x208000600060000U, 0x6000500000002U,
  0x500060000050200U, 0x2000308060000U, 0x402060008000000U, 0x5020000000305U,
  0x2040000030000U, 0x5050504060000U, 0x70300000300U, 0x4000304000004U,
  0x4020700050000U, 0x300000500U, 0x50000060606U, 0x405050005U,
  0x50204060700U, 0x204000005U, 0x20604U, 0x50603060400U,
  0x4020004000002U, 0x4080005020000U, 0x802000000000500U, 0x40006060003U,
  0x5070000000504U, 0x500000602U, 0x60400020202U, 0x60806000005U,
  0x604000006U, 0x6040300000004U, 0x60506U, 0x507000400U,
  0x400000002020402U, 0x4000000040002U, 0x2050805050200U, 0x70600000500U,
  0x200000200060500U, 0x60600000006U, 0x60202080400U, 0x602000000030200U,
  0x600000400000500U, 0x6000406060000U, 0x6040000030800U, 0x70200000400U,
  0x6000201000002U, 0x200020000060600U, 0x604060801020000U, 0x60000030000U,
  0x2000005000204U, 0x4000506000200U, 0x406040000080000U, 0x50000020000U,
  0x5060501U, 0x500080604060000U, 0x60005020000U, 0x600000206U,
  0x400040200080005U, 0x602080000020000U, 0x605000005000306U, 0x400030000070000U,
  0x5050500000006U, 0x50000050600U, 0x500000200030006U, 0x4020706000004U,
  0x108000000000600U, 0x40200030705U, 0x4000304000002U, 0x200030600000300U,
  0x5070200000200U, 0x600000506000000U, 0x2000005040600U, 0x700000000060600U,
  0x60006050005U, 0x2000000060600U, 0x5000005020402U, 0x6000000060600U,
  0x50601060600U, 0x20000050602U, 0x506060600U, 0x4000002030500U,
  0x300020400020000U, 0x6000003040000U, 0x400000600030800U, 0x200000300000005U,
  0x60600050700U, 0x506000000050800U, 0x300000600000804U, 0x5000006000008U,
  0x102050000000304U, 0x100000600000002U, 0x5070600080000U, 0x5050400U,
  0x6000003020202U, 0x200000003000400U, 0x600000002060306U, 0x2020200000002U,
  0x300000200030000U, 0x500000506000500U, 0x4060206010000U, 0x205000000060700U,
  0x4060500000000U, 0x70406000005U, 0x5000005050000U, 0x50304080100U,
  0x50000050507U, 0x5060006000300U, 0x506000202040000U, 0x50000050000U,
  0x507020006U, 0x405000407060200U, 0x5000302000000U, 0x70805060000U,
  0x60000060600U, 0x400020505000000U, 0x40000060006U, 0x2000005040204U,
  0x6020604000000U, 0x505080000U, 0x502000000030600U, 0x30002000208U,
  0x300000500020006U, 0x8000008050002U, 0x6000002040400U, 0x602080200000400U,
  0x5000600000003U, 0x200000400040600U, 0x2000006000006U, 0x801070000080006U,
  0x200000500050504U, 0x402000005000004U, 0x200000600000500U, 0x2000005060200U,
  0x3040006060000U, 0x600030800000006U, 0x50002050000U, 0x606000002U,
  0x40802060400U, 0x200000305000002U, 0x80404000000U, 0x6000000000606U,
  0x106000005000200U, 0x800000200050507U, 0x60000060005U, 0x6050000030600U,
  0x802000603000000U, 0x6020000050000U, 0x500000504U, 0x20003050806U,
  0x206040000070005U, 0x605020800000000U, 0x40000020000U, 0x504000000040704U,
  0x206040201000000U, 0x4060000000608U, 0x800050700000600U, 0x4050206000000U,
  0x600040000000200U, 0x4060300000300U, 0x20600000500U, 0x2000500000502U,
  0x205060000050200U, 0x700000300000004U, 0x406U, 0x200060402050002U,
  0x60502000000U, 0x500000603020000U, 0x806060000000002U, 0x200000400000705U,
  0x600000006000005U, 0x8000700000305U, 0x6040605050000U, 0x6040500000005U,
  0x60200000500U, 0x5U, 0x502060306U, 0x40500060700U,
  0x4040000020500U, 0x600040600000400U, 0x40204080000U, 0x5000005050000U,
  0x200050402070800U, 0x60605000000U, 0x60003000004U, 0x40003000606U,
  0x502050000040003U, 0x504000000050500U, 0x400000006000004U, 0x2050002U,
  0x603060006080102U, 0x4050000020000U, 0x6000200000200U, 0x600000400000402U,
  0x700000006060208U, 0x70805000000U, 0x4080000040001U, 0x600000006000003U,
  0x6020602U, 0x4000500010200U, 0x400060804050000U, 0x2000002050000U,
  0x208000000000200U, 0x200000005060003U, 0x400000007050005U, 0x202000000000205U,
  0x506000002000206U, 0x600020000040000U, 0x805040704000000U, 0x606000005000006U,
  0x5080000080000U, 0x502000005U, 0x400000002060805U, 0x200000002080000U,
  0x4000004060605U, 0x406000005000200U, 0x60000000800U, 0x50608060006U,
  0x606000200U, 0x400000002050302U, 0x600000203020000U, 0x700030802000000U,
  0x606000002000006U, 0x500000500050000U, 0x506070506050000U, 0x5050000020000U,
  0x6040100000400U, 0x300000600U, 0x300000002080502U, 0x504050000U,
  0x5030201080600U, 0x20000050200U, 0x40400000606U, 0x204050400U,
  0x4020100000300U, 0x5020000000505U, 0x7050500000006U, 0x206000002U,
  0x708060200000005U, 0x50406000000U, 0x208020000000500U, 0x600000202000006U,
  0x50002040000U, 0x800000405050600U, 0x602060000020000U, 0x400000000030000U,
  0x30005060202U, 0x100060000000506U, 0x202000000000500U, 0x6020000060308U,
  0x405000200000600U, 0x6020000050000U, 0x500000200000602U, 0x6000006000006U,
  0x3060406U, 0x201060000040005U, 0x50005000204U, 0x50503000002U,
  0x5040500U, 0x500000204060602U, 0x600020004000000U, 0x500000502050000U,
  0x306080000030000U, 0x500000007060100U, 0x304000005000004U, 0x20000060700U,
  0x600020007000006U, 0x202000004000002U, 0x205000005000005U, 0x6060000050000U,
  0x204060608010000U, 0x605000002000002U, 0x70000020000U, 0x20002040005U,
  0x4060002020700U, 0x406020000U, 0x2050406020000U, 0x4020000000002U,
  0x404030005050000U, 0x3000002000000U, 0x200000000070205U, 0x40205050006U,
  0x5000007000003U, 0x706020000070005U, 0x502060000000002U, 0x20400000000U,
  0x200000200000508U, 0x4000006000005U, 0x2000308000000U, 0x400000500000205U,
  0x20506U, 0x3050408070601U, 0x40400000200U, 0x40405000002U,
  0x206000005U, 0x606000308U, 0x30604070800U, 0x202000005000006U,
  0x3050200000000U, 0x500050002000300U, 0x406000005050000U, 0x604000000020002U,
  0x200000600000500U, 0x7030005050600U, 0x602000300000200U, 0x702040000040000U,
  0x8000004U, 0x20006020506U, 0x800000500000503U, 0x500000200000506U,
  0x4000002U, 0x600000002040008U, 0x6080000040004U, 0x502040000020003U,
  0x206000000020000U, 0x3080102000001U, 0x20006000002U, 0x3000000030502U,
  0x804010200000300U, 0x200020000000505U, 0x600000305040000U, 0x4000003040000U,
  0x10006040300U, 0x200040000000205U, 0x60504020000U, 0x800020000U,
  0x100000002000002U, 0x50504060802U, 0x605000002U, 0x6000005020003U,
  0x604000005060500U, 0x402000006000000U, 0x2000008030005U, 0x600000400060600U,
  0x600000300000400U, 0x40000060706U, 0x60500060006U, 0x308020202000002U,
  0x50000040000U, 0x4060006060000U, 0x30205000004U, 0x807000003000005U,
  0x40000000505U, 0x70801050600U, 0x600000503000004U, 0x406020000U,
  0x5020000000400U, 0x5000004030006U, 0x5040804020000U, 0x400000006060000U,
  0x500000200000606U, 0x400040800000004U, 0x2020200000400U, 0x307000000060000U,
  0x200000606000805U, 0x6000000080000U, 0x200060406U, 0x400080503000002U,
  0x604000000020005U, 0x400000600000202U, 0x400000600000008U, 0x400000202040005U,
  0x600000000020000U, 0x50500060405U, 0x3000008000005U, 0x604040000070005U,
  0x8000000050001U, 0x502000000020004U, 0x300000700030508U, 0x500020600000400U,
  0x800000600060000U, 0x3000000020405U, 0x504080400000002U, 0x600020000000004U,
  0x505000300000600U, 0x205000000000200U, 0x600000800050007U, 0x20500000605U,
  0x2050600U, 0x804020604U, 0x7000005080500U, 0x700000200060000U,
  0x608050000080602U, 0x6020000050000U, 0x800000206040000U, 0x2000006000003U,
  0x402050000000308U, 0x500000506U, 0x300000000060405U, 0x60000060005U,
  0x4060602060500U, 0x20606000000U, 0x4060006020000U, 0x202060000U,
  0x306000400U, 0x200000600030502U, 0x408000006000602U, 0x406020000060000U,
  0x600000000060000U, 0x800000400020201U, 0x403000002000205U, 0x604000000U,
  0x4000002020302U, 0x5040200U, 0x500050008030200U, 0x205000002000001U,
  0x100020000000406U, 0x200000008000000U, 0x506000600000006U, 0x40000050206U,
  0x200000302U, 0x400000600000405U, 0x2000004020408U, 0x20000050600U,
  0x50000020606U, 0x5050005000300U, 0x505070602010000U, 0x200020000030000U,
  0x60205000000U, 0x400000002030600U, 0x5060500000006U, 0x600000502U,
  0x2020104060600U, 0x600000605000004U, 0x600000405070000U, 0x205000000060000U,
  0x5000000060008U, 0x2060002000002U, 0x700080300000100U, 0x4020400000004U,
  0x3080000060000U, 0x4000004010606U, 0x600000500020000U, 0x2000005020000U,
  0x200000506000500U, 0x400000002U, 0x3f4c733d42ef3d70U, 0x3f000000418c0000U,
  0x3f00000042c50a3dU, 0x4264c28f00000000U, 0x0U, 0x416c0000U,
  0x4236000000000000U, 0x0U, 0x40b000003f000000U, 0x40d0000000000000U,
  0x42340000U, 0x0U, 0x40aca3d7U, 0x3f000000U,
  0x3f000000U, 0x3f00000000000000U, 0x3f000000428d0000U, 0x4298b8f542620000U,
  0x0U, 0x40200000U, 0x4285000000000000U, 0x41980000U,
  0x0U, 0x4142ccccU, 0x428135c2U, 0x4291c28fU,
  0x4287000000000000U, 0x42820000U, 0x41700000U, 0x41139999U,
  0x428b000000000000U, 0x41a51eb800000000U, 0x0U, 0x438d400041840000U,
  0x3f000000430ab852U, 0x4300533300000000U, 0x0U, 0x3f0000003f000000U,
  0x43224000U, 0x3e4e330900000000U, 0x0U, 0x40400000U,
  0x434f3333U, 0x0U, 0x4216000042760000U, 0x3f00000000000000U,
  0x40600000U, 0x439d8ccc00000000U, 0x3fbcd533U, 0x0U,
  0x421800003f000000U, 0x418c3d7041980000U, 0x0U, 0x43663333U,
  0x0U, 0x433b51eb42900000U, 0x42870000U, 0x41b8000000000000U,
  0x0U, 0x42ef3d7000000000U, 0x418c00003f4c733dU, 0x3f00000042760000U,
  0x3f0000003fc00000U, 0x0U, 0x42aad1eb00000000U, 0x41780000U,
  0x0U, 0x40bf0a3d00000000U, 0x41cce160U, 0x4226000000000000U,
  0x3f000000424a0000U, 0x0U, 0x3f00000000000000U, 0x40b00000U,
  0x0U, 0x42660000426b428fU, 0x3f800000U, 0x3f00000000000000U,
  0x3f000000U, 0x41a51eb8U, 0x3ffcd53300000000U, 0x4218b333U,
  0x3f00000000000000U, 0x0U, 0x42d857ad428d0000U, 0x3f00000042700000U,
  0x0U, 0x41940000U, 0x3ffcd53300000000U, 0x417c0000U,
  0x0U, 0x429cd99941bc0000U, 0x0U, 0x4350d0a400000000U,
  0x4343c28f3f000000U, 0x3f00000042830000U, 0x3f000000U, 0x40a0000000000000U,
  0x0U, 0x433b785240b00000U, 0x0U, 0x4178000000000000U,
  0x0U, 0x3f000000428b0000U, 0x41100000U, 0x43400e14U,
  0x0U, 0x428e0000U, 0x4287000000000000U, 0x4148000041600000U,
  0x0U, 0x3e4e330943881eb8U, 0x3f000000U, 0x0U,
  0x421870b03f000000U, 0x0U, 0x437643d700000000U, 0x0U,
  0x425251eb42b93ae1U, 0x3f0000003f000000U, 0x42be000040000000U, 0x41a51eb8U,
  0x0U, 0x3f000000U, 0x3ffcd53300000000U, 0x4020000000000000U,
  0x3f000000U, 0x0U, 0x40a428f6U, 0x429b00003f000000U,
  0x3fc00000U, 0x0U, 0x424c000041e40000U, 0x0U,
  0x429a785100000000U, 0x426b428f3f000000U, 0x41780000U, 0x3f00000000000000U,
  0x3f000000U, 0x3f00000000000000U, 0x0U, 0x418400003f000000U,
  0x0U, 0x0U, 0x3f0000003f000000U, 0x3f0000003f4c733dU,
  0x415c000000000000U, 0x0U, 0x3f00000042970000U, 0x4194000000000000U,
  0x0U, 0x3f000000U, 0x3f4c733d00000000U, 0x425e00003f000000U,
  0x4272000000000000U, 0x0U, 0x3fbcd533U, 0x43837d7000000000U,
  0x428d0000436b970aU, 0x0U, 0x0U, 0x3f000000436b9c29U,
  0x4363b5c23f000000U, 0x3f000000U, 0x422a000000000000U, 0x0U,
  0x41a0e16000000000U, 0x41480000U, 0x4220000000000000U, 0x0U,
  0x3e4e330900000000U, 0x41d0e16042970000U, 0x41280000426a0000U, 0x424c0000U,
  0x431787ae00000000U, 0x40e0000000000000U, 0x0U, 0x4289000042a9ae14U,
  0x41163d70U, 0x413e8f5c00000000U, 0x0U, 0x42dd051e438b751eU,
  0x0U, 0x4090000000000000U, 0x3fbcd5333f000000U, 0x3f000000U,
  0x0U, 0x428500003f000000U, 0x0U, 0x3f800000U,
  0x42c2999900000000U, 0x40d0000000000000U, 0x42640000U, 0x0U,
  0x42a06e14429d0000U, 0x421c0000U, 0x4283a3d7U, 0x0U,
  0x42c35c2900000000U, 0x3f000000U, 0x40e00000422e0000U, 0x42180000U,
  0x4177eb85U, 0x0U, 0x4219f0a4U, 0x4150000041880000U,
  0x0U, 0x4224000000000000U, 0x3fbcd533U, 0x428a000000000000U,
  0x42fbd70a43260a3dU, 0x40900000U, 0x3f00000000000000U, 0x0U,
  0x3f000000U, 0x41b4000000000000U, 0x0U, 0x402000003f4c733dU,
  0x41cce1604112147aU, 0x0U, 0x3f00000042720000U, 0x431c3851U,
  0x42520000U, 0x41dc000000000000U, 0x422e0000U, 0x0U,
  0x42cd3ae1U, 0x42cfe3d7U, 0x4224000000000000U, 0x421a0000U,
  0x40f0000000000000U, 0x4108000000000000U, 0x41a00000U, 0x0U,
  0x439d8ccc42870000U, 0x3f0000003fbcd533U, 0x42080000U, 0x3f000000U,
  0x4308228f00000000U, 0x41840000U, 0x3f00000000000000U, 0x0U,
  0x3ffcd5333f000000U, 0x3f000000U, 0x4276000000000000U, 0x0U,
  0x41ac00004382151eU, 0x0U, 0x0U, 0x42890000429f0000U,
  0x42a0fd7000000000U, 0x419c0000U, 0x42020000U, 0x4297000000000000U,
  0x42cbe148U, 0x0U, 0x40600000U, 0x3f000000U,
  0x40a00000U, 0x3e4e330900000000U, 0x428700003f000000U, 0x3f00000042140000U,
  0x3f0000003ffcd533U, 0x0U, 0x424c0000U, 0x401e6a9900000000U,
  0x421c0000U, 0x3f00000000000000U, 0x0U, 0x425a00003f000000U,
  0x3f00000000000000U, 0x0U, 0x40200000422c0000U, 0x0U,
  0x3f00000000000000U, 0x4289000000000000U, 0x4344e00000000000U, 0x428b0000U,
  0x3f00000000000000U, 0x0U, 0x428d00003f000000U, 0x41480000U,
  0x41566666U, 0x3f000000U, 0x4316651f00000000U, 0x4184000000000000U,
  0x3f000000U, 0x0U, 0x422e000000000000U, 0x41840000U,
  0x421a0000416a3d70U, 0x0U, 0x42280000U, 0x418c0000U,
  0x42cd3ae100000000U, 0x3f000000424a0000U, 0x3f000000U, 0x0U,
  0x42197ae1U, 0x3f00000041880000U, 0x0U, 0x3f00000000000000U,
  0x3f00000042d97e14U, 0x0U, 0x3f000000U, 0x4336e8f600000000U,
  0x42cfe3d7U, 0x42ecc000U, 0x0U, 0x428f00003e4e3309U,
  0x3f0000003f000000U, 0x41a03d704213d1ebU, 0x0U, 0x418d28f500000000U,
  0x4060000000000000U, 0x438648f6U, 0x0U, 0x41680000U,
  0x426e000041ac0000U, 0x40a00000U, 0x4040000000000000U, 0x0U,
  0x42820000437d570aU, 0x0U, 0x3f800000U, 0x41b0000000000000U,
  0x41d8000000000000U, 0x426fbd70U, 0x42a70000U, 0x42a8000000000000U,
  0x416ce147U, 0x4295570aU, 0x0U, 0x426ff2e2427a0000U,
  0x3ffcd53342380000U, 0x41cce1604304d47aU, 0x0U, 0x425a0000U,
  0x3f00000000000000U, 0x0U, 0x423e0000U, 0x421b0f5bU,
  0x4276000000000000U, 0x3f0000003f000000U, 0x0U, 0x3f00000000000000U,
  0x4184000000000000U, 0x0U, 0x3f00000000000000U, 0x3f000000U,
  0x3f00000042870000U, 0x41e400003f000000U, 0x41980000U, 0x3f00000000000000U,
  0x0U, 0x42724cccU, 0x41a40000U, 0x3f00000000000000U,
  0x3f000000U, 0x422e000000000000U, 0x40200000U, 0x3f00000000000000U,
  0x0U, 0x42060000408f3333U, 0x0U, 0x42027ae1428f0000U,
  0x41ac000000000000U, 0x0U, 0x3f000000U, 0x3f4c733d00000000U,
  0x42c0e3d741840000U, 0x418a28f5U, 0x3e98e67b00000000U, 0x41480000U,
  0x41680000U, 0x0U, 0x41b400003f000000U, 0x428c51ebU,
  0x0U, 0x428d000000000000U, 0x4388270a42820000U, 0x41d40000432d88f5U,
  0x0U, 0x43475333U, 0x0U, 0x4289000040200000U,
  0x4270c7aeU, 0x428b000000000000U, 0x0U, 0x3f79aa6600000000U,
  0x42930000U, 0x42980000U, 0x0U, 0x4194000042efe666U,
  0x426b428f3f000000U, 0x3f000000U, 0x427c0000U, 0x4291000000000000U,
  0x423800003fbcd533U, 0x0U, 0x0U, 0x41440000U,
  0x411533333f000000U, 0x414c000000000000U, 0x0U, 0x3f00000040200000U,
  0x0U, 0x3f4c733d00000000U, 0x424a00003f000000U, 0x426df2e200000000U,
  0x426a0000U, 0x0U, 0x3f000000424e0000U, 0x3f00000000000000U,
  0x0U, 0x426b428fU, 0x3f00000000000000U, 0x41eb851f4295570aU,
  0x3f000000U, 0x41cc000000000000U, 0x0U, 0x3f000000U,
  0x3f000000U, 0x42cc885100000000U, 0x0U, 0x429700003e4e3309U,
  0x435135c243881eb8U, 0x42120000U, 0x3f000000U, 0x4130000000000000U,
  0x4118000000000000U, 0x0U, 0x418400003f000000U, 0x3fc0000000000000U,
  0x0U, 0x3f00000000000000U, 0x0U, 0x3f000000430f8ccdU,
  0x42660000U, 0x43029c2900000000U, 0x0U, 0x418400003f000000U,
  0x3f000000U, 0x43402f5cU, 0x0U, 0x41a40000U,
  0x3fbcd53300000000U, 0x418400003f4c733dU, 0x422a0000U, 0x3f000000422a0f5cU,
  0x41c670a4U, 0x0U, 0x4334f47b424e0000U, 0x0U,
  0x3f00000000000000U, 0x3f00000041dc0000U, 0x3f000000U, 0x416b0a3d00000000U,
  0x0U, 0x0U, 0x3f00000042760000U, 0x3f0000003f000000U,
  0x4213d1ebU, 0x0U, 0x3f00000041780000U, 0x0U,
  0x3f000000U, 0x3f00000000000000U, 0x415666663f000000U, 0x0U,
  0x4178000000000000U, 0x415c0000U, 0x42c235c200000000U, 0x0U,
  0x42c6a666428f0000U, 0x427e0000418c0000U, 0x0U, 0x41b63d70U,
  0x4281000000000000U, 0x4287000000000000U, 0x0U, 0x41c400003f000000U,
  0x42a10000U, 0x0U, 0x3f00000000000000U, 0x3f00000040200000U,
  0x42fbdf5bU, 0x41480000U, 0x420470b0U, 0x41cc000000000000U,
  0x41940000U, 0x42760000U, 0x0U, 0x3f00000042b1a8f5U,
  0x4060000000000000U, 0x40a0000000000000U, 0x0U, 0x414800004322e000U,
  0x4178000000000000U, 0x0U, 0x40c00000424c0000U, 0x0U,
  0x433c91ebU, 0x42d8385200000000U, 0x3ffcd533424a0000U, 0x41a80000U,
  0x40ee6666U, 0x0U, 0x3f00000000000000U, 0x40800000U,
  0x428a0000U, 0x0U, 0x40a428f6426b428fU, 0x3f0000003f000000U,
  0x40900000U, 0x0U, 0x42420000U, 0x3f00000000000000U,
  0x425e0000426a0000U, 0x0U, 0x3f0000003f000000U, 0x41c8000000000000U,
  0x0U, 0x41dc000000000000U, 0x42197ae141d40000U, 0x3f00000000000000U,
  0x0U, 0x40afd70a00000000U, 0x0U, 0x3f0000003f000000U,
  0x42cdca3d00000000U, 0x429b000041180000U, 0x428af333U, 0x0U,
  0x4287000000000000U, 0x414800003f000000U, 0x0U, 0x3f000000U,
  0x42dc547a00000000U, 0x0U, 0x42c35c293f4c733dU, 0x4336e8f600000000U,
  0x4080000041940000U, 0x0U, 0x40800000U, 0x0U,
  0x43881eb842870000U, 0x4326e7ae419c0000U, 0x0U, 0x0U,
  0x41a8000042940000U, 0x0U, 0x3e4e330900000000U, 0x4276000042870000U,
  0x3fbcd5333f000000U, 0x422800004344347bU, 0x0U, 0x3f000000U,
  0x4020000000000000U, 0x3f000000U, 0x4090000000000000U, 0x0U,
  0x40400000431a6ccdU, 0x41c00000U, 0x0U, 0x425a0000U,
  0x42600000U, 0x3fbcd53300000000U, 0x41526666U, 0x42a81eb841b40000U,
  0x0U, 0x433b51ebU, 0x4301185100000000U, 0x41ec000000000000U,
  0x431fd5c2U, 0x0U, 0x3f00000041940000U, 0x3f000000U,
  0x3f00000041780000U, 0x0U, 0x3ffcd533U, 0x4148000000000000U,
  0x3fbcd53300000000U, 0x41079aa600000000U, 0x0U, 0x3f0000003f000000U,
  0x428d000000000000U, 0x42890000U, 0x426c851e00000000U, 0x0U,
  0x40600000430fea3dU, 0x42020000U, 0x40a0000000000000U, 0x0U,
  0x418c000000000000U, 0x42d10ccd3f000000U, 0x41153333U, 0x3f000000U,
  0x4180000000000000U, 0x430171ebU, 0x0U, 0x414000003f000000U,
  0x0U, 0x4158000040400000U, 0x0U, 0x3f00000000000000U,
  0x40a428f6U, 0x3f000000U, 0x4224000042720000U, 0x0U,
  0x42c87d7000000000U, 0x430e83d700000000U, 0x425a0000U, 0x428f0000U,
  0x0U, 0x3e4e33093f000000U, 0x42be00003f000000U, 0x0U,
  0x4364170a436890a4U, 0x428d0000431b6000U, 0x0U, 0x418c0000U,
  0x0U, 0x3f80000042320000U, 0x0U, 0x430ab85200000000U,
  0x3f000000U, 0x3f0000003f000000U, 0x41a00000U, 0x0U,
  0x41ac000042220000U, 0x0U, 0x3f000000U, 0x432a547b00000000U,
  0x41840000U, 0x0U, 0x3f0000003f4c733dU, 0x424e00003f000000U,
  0x42c6051e00000000U, 0x425a0000U, 0x4178000000000000U, 0x0U,
  0x40f00000U, 0x41080000U, 0x4158000000000000U, 0x41a0000000000000U,
  0x422e0000U, 0x0U, 0x3f0000004387047bU, 0x42ca547bU,
  0x426200003f000000U, 0x0U, 0x3ffcd53300000000U, 0x4256000000000000U,
  0x4302e7ae00000000U, 0x0U, 0x3e4e330900000000U, 0x3f00000042f3970aU,
  0x41ec0000426a0000U, 0x42c02147U, 0x3fbcd533U, 0x4260000000000000U,
  0x3f80000000000000U, 0x0U, 0x426e000041500000U, 0x0U,
  0x41e0e1604208851fU, 0x0U, 0x41cc0000U, 0x42d5951e00000000U,
  0x0U, 0x436107ae42760000U, 0x4340a51f3fbcd533U, 0x41780000U,
  0x0U, 0x3f000000424e0000U, 0x0U, 0x423e000000000000U,
  0x43648e1441000000U, 0x0U, 0x3f00000000000000U, 0x4242000000000000U,
  0x0U, 0x401e6a9942970000U, 0x430c6a3d41803d70U, 0x0U,
  0x42850000U, 0x4301185100000000U, 0x3f00000000000000U, 0x0U,
  0x42d3f0a400000000U, 0x418400003f000000U, 0x3f000000U, 0x41780000U,
  0x0U, 0x3f000000424e0000U, 0x420c0000U, 0x41dc000000000000U,
  0x4295bd70U, 0x4128b85200000000U, 0x0U, 0x42260000U,
  0x4080000000000000U, 0x43260a3d3fbcd533U, 0x3f000000430ab852U, 0x0U,
  0x431428f5U, 0x3f00000000000000U, 0x425c0000U, 0x0U,
  0x0U, 0x430118513e4e3309U, 0x42d5951e42810000U, 0x4274000042521eb8U,
  0x42660000U, 0x0U, 0x426a000042c49c29U, 0x0U,
  0x3f000000U, 0x41cce16000000000U, 0x42f2028f3f000000U, 0x0U,
  0x3f00000000000000U, 0x41d4e160U, 0x0U, 0x3f0000003f000000U,
  0x42890000U, 0x4288000000000000U, 0x41a51eb800000000U, 0x0U,
  0x3fc0000041080000U, 0x3f000000U, 0x0U, 0x42b40f5cU,
  0x41880000U, 0x4297000000000000U, 0x422200003f000000U, 0x3f000000U,
  0x42180000U, 0x422e000000000000U, 0x423e000000000000U, 0x0U,
  0x4307f0a442830000U, 0x42420000U, 0x0U, 0x428f0000418c0000U,
  0x0U, 0x432e651eU, 0x0U, 0x3f000000418c0000U,
  0x41440000U, 0x414c0000U, 0x424e0000427a0000U, 0x0U,
  0x4158000000000000U, 0x3f00000000000000U, 0x3f800000U, 0x0U,
  0x41d4e16041dc0000U, 0x42bd87aeU, 0x42cf6e14U, 0x3f00000000000000U,
  0x3f00000040600000U, 0x0U, 0x0U, 0x41e40000U,
  0x426b428f00000000U, 0x4112147a40200000U, 0x40bf0a3d410c0000U, 0x3f0000003f000000U,
  0x0U, 0x0U, 0x421f385200000000U, 0x3f00000042042e14U,
  0x426a0000U, 0x0U, 0x4190000042820000U, 0x0U,
  0x4208851fU, 0x3f00000000000000U, 0x0U, 0x434e5d7000000000U,
  0x3f0000003e4e3309U, 0x415e66663f000000U, 0x3f000000U, 0x3f00000000000000U,
  0x0U, 0x428300003f000000U, 0x0U, 0x42140000U,
  0x3f00000000000000U, 0x4212000042320000U, 0x0U, 0x3f000000U,
  0x0U, 0x3f000000418c0000U, 0x415c00003f000000U, 0x0U,
  0x42f23d71U, 0x422a000000000000U, 0x0U, 0x4286000042460000U,
  0x41b0000000000000U, 0x0U, 0x42800000U, 0x4208000000000000U,
  0x3f000000U, 0x4158000000000000U, 0x3f00000000000000U, 0x41940000U,
  0x427a0000U, 0x3f00000000000000U, 0x0U, 0x423a00003e4e3309U,
  0x4345aa3d42240000U, 0x3f0000003fbcd533U, 0x42bb8a3dU, 0x433c6b8500000000U,
  0x0U, 0x41be1eb8U, 0x42560000U, 0x4287000000000000U,
  0x3f00000043909000U, 0x0U, 0x42020000U, 0x428c000000000000U,
  0x4000000000000000U, 0x0U, 0x4140000000000000U, 0x427000003f000000U,
  0x4213d1eb40000000U, 0x0U, 0x0U, 0x426c0000U,
  0x0U, 0x41840000422e0000U, 0x3f00000000000000U, 0x41dc000000000000U,
  0x4230000000000000U, 0x0U, 0x4219f0a442d3f0a4U, 0x41b4000000000000U,
  0x42234ccd3ffcd533U, 0x0U, 0x4263f5c2U, 0x0U,
  0x432c0f5c419c0000U, 0x42520000U, 0x42720000U, 0x0U,
  0x42d97e14U, 0x422e00004267f2e2U, 0x0U, 0x3f4c733d00000000U,
  0x3f000000427a0000U, 0x40eb333342240000U, 0x3f000000U, 0x418c000000000000U,
  0x42fbb5c2U, 0x0U, 0x3f0000003f000000U, 0x0U,
  0x4090000042260000U, 0x0U, 0x3f00000000000000U, 0x3f338cc241940000U,
  0x43402f5c00000000U, 0x0U, 0x42300000U, 0x0U,
  0x4138000042e82e14U, 0x0U, 0x40b00000U, 0x426c0a3d00000000U,
  0x419fe1473f000000U, 0x40000000418d28f5U, 0x0U, 0x4190000000000000U,
  0x0U, 0x42a9000042067ae1U, 0x3f00000041c40000U, 0x0U,
  0x3fc0000000000000U, 0x0U, 0x3f00000000000000U, 0x3f000000U,
  0x3f00000042870000U, 0x42e4547aU, 0x41ac000000000000U, 0x0U,
  0x41c40000430fea3dU, 0x0U, 0x428d0000U, 0x3f00000000000000U,
  0x41300000436323d7U, 0x42860000U, 0x427e000000000000U, 0x0U,
  0x436b970aU, 0x42740000U, 0x0U, 0x3f0000003f000000U,
  0x4040000042870000U, 0x4350d0a400000000U, 0x42bc00003f000000U, 0x0U,
  0x431a6ccdU, 0x3f00000000000000U, 0x4090000000000000U, 0x0U,
  0x3f0000003f000000U, 0x4226000000000000U, 0x42cdca3dU, 0x0U,
  0x429700004324147bU, 0x42000000U, 0x40a0000000000000U, 0x0U,
  0x3fc00000U, 0x3f00000000000000U, 0x428f00003ffcd533U, 0x42620000426c0000U,
  0x0U, 0x41a80000U, 0x3f00000000000000U, 0x0U,
  0x0U, 0x41cce160422e0000U, 0x4211dc283ffcd533U, 0x3f000000U,
  0x0U, 0x421a0000U, 0x3f00000000000000U, 0x0U,
  0x3f000000418c0000U, 0x4120000000000000U, 0x42df333300000000U, 0x435a2ccd00000000U,
  0x0U, 0x42bc7ae141dc0000U, 0x3f00000000000000U, 0x42cf6e14U,
  0x425e000000000000U, 0x0U, 0x428f000000000000U, 0x3f0000003f000000U,
  0x42a500004213d1ebU, 0x41948f5c00000000U, 0x0U, 0x3f00000000000000U,
  0x42360a3d422e0000U, 0x412ce147U, 0x0U, 0x418400003f000000U,
  0x0U, 0x4287000000000000U, 0x4226000042560000U, 0x0U,
  0x40d00000U, 0x40b0000000000000U, 0x3f000000U, 0x0U,
  0x419000003f000000U, 0x42c0e3d7U, 0x43402f5c3f000000U, 0x0U,
  0x42dfc7aeU, 0x4286000000000000U, 0x4309628f00000000U, 0x40200000U,
  0x0U, 0x4388270a42810000U, 0x424a00003f000000U, 0x0U,
  0x0U, 0x42830000U, 0x40200000428d0000U, 0x0U,
  0x4320a3d7U, 0x431e6b8500000000U, 0x4060000040b3851eU, 0x0U,
  0x429b0000U, 0x42713333U, 0x41c6cccd429f0000U, 0x0U,
  0x3f00000000000000U, 0x418c000000000000U, 0x0U, 0x4242000042fcfd70U,
  0x41cce1603f000000U, 0x41500000U, 0x3f00000042960f5cU, 0x0U,
  0x0U, 0x42120000U, 0x42cc88513f000000U, 0x41888f5cU,
  0x0U, 0x41773333U, 0x3f4c733d00000000U, 0x4184000040f00000U,
  0x3f000000U, 0x42600000U, 0x0U, 0x42c7f851U,
  0x3f00000000000000U, 0x428d000041940000U, 0x4291000000000000U, 0x0U,
  0x419fe147U, 0x3f000000U, 0x4282000000000000U, 0x42724cccU,
  0x4295570a00000000U, 0x426ed1ebU, 0x0U, 0x3f0000003f000000U,
  0x3f00000000000000U, 0x3f000000U, 0x433fca3dU, 0x3f00000000000000U,
  0x430f6ccd431cc28fU, 0x0U, 0x42850000U, 0x41ac000000000000U,
  0x422e0000U, 0x0U, 0x42800000431d7c28U, 0x4288000000000000U,
  0x418c0000U, 0x0U, 0x3e4e33093fbcd533U, 0x42580000U,
  0x3f000000U, 0x4256000000000000U, 0x43260a3d00000000U, 0x0U,
  0x401e6a9942860000U, 0x4198000000000000U, 0x0U, 0x3f4c733d00000000U,
  0x3f00000042ecc000U, 0x3f000000U, 0x3f80000041599999U, 0x0U,
  0x422e000000000000U, 0x418c0000U, 0x41b0e1603f000000U, 0x0U,
  0x403e6a99U, 0x0U, 0x40a00000419c0000U, 0x41580000U,
  0x431c385143594000U, 0x0U, 0x0U, 0x40800000U,
  0x4321accdU, 0x4194000000000000U, 0x418400003f000000U, 0x426c0a3dU,
  0x3f00000042910000U, 0x0U, 0x41680000U, 0x4239eb8400000000U,
  0x4333e66600000000U, 0x4287000000000000U, 0x0U, 0x428d0000401e6a99U,
  0x3f000000425e0000U, 0x0U, 0x42f3e3d7U, 0x4327e14800000000U,
  0x4184000000000000U, 0x0U, 0x42f5a8f600000000U, 0x41c0000041a51eb8U,
  0x0U, 0x42f2028f42870000U, 0x3f000000U, 0x0U,
  0x3f000000U, 0x42cdca3dU, 0x3f00000000000000U, 0x3f00000042780000U,
  0x40d0000000000000U, 0x0U, 0x3f000000U, 0x40400000U,
  0x43881eb800000000U, 0x428d00003f000000U, 0x0U, 0x0U,
  0x428f00003e4e3309U, 0x41100000431e0b85U, 0x3f00000041cc0000U, 0x3f000000U,
  0x428d000000000000U, 0x0U, 0x426000003f000000U, 0x0U,
  0x3fbcd533U, 0x0U, 0x3f0000003f000000U, 0x4160000000000000U,
  0x41480000U, 0x4347d1eb00000000U, 0x0U, 0x3fc0000043909000U,
  0x427c0000U, 0x0U, 0x4295570a00000000U, 0x4294051f3f000000U,
  0x429070a442a80000U, 0x0U, 0x41ec51ebU, 0x0U,
  0x0U, 0x4219f0a442c2ab85U, 0x423000004167d70aU, 0x42280000U,
  0x0U, 0x424e000000000000U, 0x3f00000042720000U, 0x4237ae14U,
  0x3f00000000000000U, 0x0U, 0x426c000000000000U, 0x0U,
  0x422400003f000000U, 0x41a8e160U, 0x4080000000000000U, 0x3f000000U,
  0x415c0000U, 0x0U, 0x428f000043260a3dU, 0x4150000040200000U,
  0x0U, 0x4297000000000000U, 0x0U, 0x3f00000000000000U,
  0x427170a342220000U, 0x3f000000U, 0x41f00000U, 0x3f00000000000000U,
  0x3f79aa66U, 0x42a0333300000000U, 0x4188000000000000U, 0x0U,
  0x3f00000042cd0000U, 0x4219f0a4U, 0x3f0000003ffcd533U, 0x0U,
  0x4184000000000000U, 0x3f800000U, 0x0U, 0x3f00000041a80000U,
  0x4334f47b42500000U, 0x0U, 0x3f00000000000000U, 0x418c0000U,
  0x0U, 0x41cce160405e6a99U, 0x0U, 0x3f000000U,
  0x4321accdU, 0x428f000000000000U, 0x434be28f3f000000U, 0x418c3d7041d0e160U,
  0x3fbcd533U, 0x3f00000000000000U, 0x0U, 0x422928f641080000U,
  0x0U, 0x3f00000000000000U, 0x435a4e1400000000U, 0x4287000000000000U,
  0x0U, 0x425e00003fbcd533U, 0x43248a3d00000000U, 0x418c0000U,
  0x3f00000000000000U, 0x0U, 0x419c0000428d0000U, 0x41940000U,
  0x42bce3d700000000U, 0x0U, 0x41c4000000000000U, 0x430871eb41ac0000U,
  0x3fbcd53300000000U, 0x0U, 0x43114f5c41b40000U, 0x42a2bae0U,
  0x0U, 0x3f000000U, 0x4060000000000000U, 0x3f000000U,
  0x0U, 0x3f0000003f000000U, 0x41fe51eb426a0000U, 0x41d6d70aU,
  0x0U, 0x40900000U, 0x3e4e330900000000U, 0x428d00003f000000U,
  0x434f347b43866666U, 0x0U, 0x4170000000000000U, 0x429a0000U,
  0x429a9c2900000000U, 0x0U, 0x42b6333300000000U, 0x426e000041880000U,
  0x4178000000000000U, 0x0U, 0x425e000000000000U, 0x41500000U,
  0x3fc0000000000000U, 0x0U, 0x428700003f000000U, 0x416800003f000000U,
  0x433b51eb00000000U, 0x432f547aU, 0x4216000000000000U, 0x0U,
  0x43425c2900000000U, 0x4148000040600000U, 0x3ffcd53300000000U, 0x0U,
  0x41c8000041480000U, 0x0U, 0x0U, 0x422e000042cbd99aU,
  0x42260000407e6a99U, 0x41aa6666U, 0x0U, 0x41ec0000U,
  0x41b4000000000000U, 0x422d3852427c0000U, 0x0U, 0x41b9c28fU,
  0x0U, 0x40800000428e0000U, 0x3f00000041840000U, 0x0U,
  0x41a80000U, 0x0U, 0x42ef3d7000000000U, 0x428d00004266fae1U,
  0x3f0000003f000000U, 0x42400000U, 0x426c000000000000U, 0x3f000000U,
  0x0U, 0x427000003f000000U, 0x3ffcd53300000000U, 0x0U,
  0x3fbcd533424a0000U, 0x0U, 0x42195c29U, 0x0U,
  0x3ffcd5333f000000U, 0x426947aeU, 0x42cd800042d82eb7U, 0x0U,
  0x420a0000U, 0x4287000000000000U, 0x41880000U, 0x3f000000U,
  0x4292000000000000U, 0x428a0000U, 0x0U, 0x42c35c293f000000U,
  0x428b000000000000U, 0x3f000000U, 0x0U, 0x3fbcd53341bc0000U,
  0x42beee14U, 0x0U, 0x429a000000000000U, 0x426a0000436afc29U,
  0x406000003f000000U, 0x42360000U, 0x0U, 0x3f0000003f000000U,
  0x0U, 0x430067adU, 0x3f00000000000000U, 0x428e00004324147bU,
  0x0U, 0x3f000000U, 0x42f468f600000000U, 0x4289000000000000U,
  0x0U, 0x3f000000U, 0x3f000000438a6e14U, 0x3f000000U,
  0x0U, 0x438cd000U, 0x3f000000U, 0x0U,
  0x3fbcd53342efe666U, 0x429070a43f000000U, 0x426a00003f000000U, 0x42100000U,
  0x42a1000000000000U, 0x0U, 0x3f00000042591999U, 0x0U,
  0x3f00000000000000U, 0x415c000000000000U, 0x0U, 0x3f0000003f000000U,
  0x3f00000042e38000U, 0x0U, 0x0U, 0x42b63333U,
  0x418c000042820000U, 0x0U, 0x4276000000000000U, 0x42c25eb83f000000U,
  0x42dbeeb700000000U, 0x3f000000U, 0x0U, 0x41cce160426e0000U,
  0x3f000000U, 0x0U, 0x42e0d51e00000000U, 0x41180000U,
  0x3f000000U, 0x0U, 0x43151c29434e5d70U, 0x42f73d7141a40000U,
  0x4168000000000000U, 0x3f000000U, 0x3f00000000000000U, 0x0U,
  0x426e0000U, 0x427a000042200000U, 0x0U, 0x3f00000000000000U,
  0x3f0000004343e7aeU, 0x4317651eU, 0x4282000000000000U, 0x0U,
  0x433d147b00000000U, 0x3fbcd533U, 0x431f9ae1U, 0x4348599900000000U,
  0x0U, 0x3f4c733d42400000U, 0x4128000000000000U, 0x439d75c200000000U,
  0x40b00000U, 0x0U, 0x4242000042720000U, 0x437c2b8500000000U,
  0x0U, 0x3f4c733d00000000U, 0x3f00000042c35c29U, 0x4256570a00000000U,
  0x416b0a3d41dc0000U, 0x409f354cU, 0x0U, 0x3f000000U,
  0x4236000000000000U, 0x0U, 0x40d000003f000000U, 0x3f000000U,
  0x41480000428a0000U, 0x0U, 0x428d0000U, 0x0U,
  0x4272000040600000U, 0x0U, 0x3f00000000000000U, 0x3f000000U,
  0x431c1eb841799999U, 0x41480000U, 0x3f000000U, 0x0U,
  0x428f00003f000000U, 0x40f00000U, 0x4294000000000000U, 0x0U,
  0x422e0000423e0000U, 0x0U, 0x41b4000000000000U, 0x3f0000003fbcd533U,
  0x4184000041980000U, 0x0U, 0x422aa8f5U, 0x4323200000000000U,
  0x4158000000000000U, 0x0U, 0x41880000U, 0x425a0000U,
  0x42f32148U, 0x43881eb800000000U, 0x3f000000428b0000U, 0x42f5a8f6U,
  0x0U, 0x0U, 0x428900003f000000U, 0x41080000424e0000U,
  0x41b400003f000000U, 0x42830000U, 0x4226000000000000U, 0x0U,
  0x42b1b0a4418c0000U, 0x0U, 0x3f000000U, 0x0U,
  0x3f000000U, 0x0U, 0x3f0000003f000000U, 0x42a00000U,
  0x4020000000000000U, 0x4224000042870000U, 0x4317bae100000000U, 0x0U,
  0x42dc547a3f000000U, 0x0U, 0x3fc00000U, 0x4178000000000000U,
  0x40470a3dU, 0x42f3a666U, 0x0U, 0x3f000000428d0000U,
  0x4090000042780000U, 0x41980000U, 0x0U, 0x42b47852U,
  0x42870000U, 0x0U, 0x41f40000428f0000U, 0x41d40000U,
  0x42738a3dU, 0x0U, 0x3e4e330900000000U, 0x3f0000003f000000U,
  0x3f000000U, 0x4020000040600000U, 0x41780000U, 0x4281000000000000U,
  0x0U, 0x4238000000000000U, 0x4281000042970000U, 0x42fedeb8U,
  0x41e8000000000000U, 0x0U, 0x421c0000U, 0x4242000000000000U,
  0x0U, 0x40e0000041cce160U, 0x3f0000003f000000U, 0x0U,
  0x419000004313d0a4U, 0x0U, 0x0U, 0x3f00000043475c29U,
  0x42cc8851U, 0x0U, 0x42c0e3d700000000U, 0x424e000042760000U,
  0x3f0000004110b851U, 0x0U, 0x41bc00003ffcd533U, 0x0U,
  0x426b428f00000000U, 0x0U, 0x427a0000U, 0x41a8000000000000U,
  0x415800003f000000U, 0x4359400000000000U, 0x42c8a666U, 0x0U,
  0x4285000000000000U, 0x3f0000003e98e67bU, 0x3f000000U, 0x4040000000000000U,
  0x0U, 0x41bc000000000000U, 0x0U, 0x3f0000003e4e3309U,
  0x42be00003f000000U, 0x0U, 0x4274000042870000U, 0x4313d0a442560000U,
  0x0U, 0x4273147aU, 0x42a7cccc00000000U, 0x433b51eb00000000U,
  0x0U, 0x4208851f40600000U, 0x42260000U, 0x4226000000000000U,
  0x0U, 0x42990000U, 0x42040000U, 0x428d000000000000U,
  0x418800003f000000U, 0x41480000U, 0x4326e7aeU, 0x4060000000000000U,
  0x40200000U, 0x0U, 0x4316651f00000000U, 0x4328785200000000U,
  0x0U, 0x41cce16042220000U, 0x41959999U, 0x3f79aa66U,
  0x4212000000000000U, 0x0U, 0x4144000041b99999U, 0x42cd000000000000U,
  0x41e3eb85424a0000U, 0x0U, 0x422523d7U, 0x41a8000000000000U,
  0x42800000U, 0x0U, 0x42f2a148U, 0x4319747aU,
  0x3f00000000000000U, 0x3f0000003e4e3309U, 0x42bc000042128000U, 0x0U,
  0x431cc28f00000000U, 0x3f0000004312fd70U, 0x40600000U, 0x4234000000000000U,
  0x0U, 0x4315a000U, 0x3f00000000000000U, 0x4327ee14433aecccU,
  0x0U, 0x42880000U, 0x0U, 0x41f40000U,
  0x4304628f3f000000U, 0x4219f0a4U, 0x3f338cc2U, 0x41e0000000000000U,
  0x40600000U, 0x0U, 0x421a0000U, 0x3fbcd53342440000U,
  0x0U, 0x3ffcd53300000000U, 0x3f000000424bae14U, 0x3f00000000000000U,
  0x41a51eb8U, 0x0U, 0x41380000426a0000U, 0x420c000000000000U,
  0x430488f5U, 0x4224000000000000U, 0x0U, 0x42f5a8f6U,
  0x413e66663f000000U, 0x0U, 0x41a8e160U, 0x4282000000000000U,
  0x3f000000420c0000U, 0x41980000U, 0x4175851e00000000U, 0x0U,
  0x4080000000000000U, 0x0U, 0x402000003e4e3309U, 0x3f00000042760000U,
  0x42120000435a9ae1U, 0x42189eb800000000U, 0x0U, 0x41400000U,
  0x41900000U, 0x425e000000000000U, 0x42ae147b00000000U, 0x4212000000000000U,
  0x0U, 0x41980000428f0000U, 0x42a81eb8U, 0x4379af5cU,
  0x4243051e00000000U, 0x42840000U, 0x4283000000000000U, 0x0U,
  0x3fbcd533U, 0x3f000000U, 0x4033333300000000U, 0x428d000000000000U,
  0x424a00003f000000U, 0x3f00000000000000U, 0x0U, 0x411800003f000000U,
  0x0U, 0x415e666600000000U, 0x4100000000000000U, 0x4297000000000000U,
  0x0U, 0x4224000041080000U, 0x3f000000422e0000U, 0x4235d70a00000000U,
  0x41e40000U, 0x0U, 0x42195c29U, 0x419000003f000000U,
  0x0U, 0x42266148U, 0x4239a8f500000000U, 0x0U,
  0x3f00000000000000U, 0x410800003e4e3309U, 0x42be00003f000000U, 0x0U,
  0x40d0000042870000U, 0x42660000U, 0x0U, 0x42a8000042983d70U,
  0x0U, 0x41dc0000U, 0x3f00000000000000U, 0x0U,
  0x41780000418fcccdU, 0x3f000000U, 0x3f000000U, 0x42857333U,
  0x41c3eb8500000000U, 0x0U, 0x3f000000U, 0x41f80000422e0000U,
  0x0U, 0x421b23d742720000U, 0x0U, 0x3e4e330900000000U,
  0x428d00003f000000U, 0x4060000043866666U, 0x41780000U, 0x0U,
  0x4180000000000000U, 0x0U, 0x4286000000000000U, 0x41500000U,
  0x4184000042aad1ebU, 0x418a28f5U, 0x0U, 0x3f338cc2U,
  0x0U, 0x3f0000003e4e3309U, 0x3f000000419a0000U, 0x3f00000042870000U,
  0x4100000000000000U, 0x0U, 0x42940000U, 0x42970000U,
  0x4298000000000000U, 0x428e000040200000U, 0x0U, 0x3f00000000000000U,
  0x0U, 0x3fbcd53342e591ebU, 0x41b000003f000000U, 0x0U,
  0x429e4a3dU, 0x421e000000000000U, 0x423c000000000000U, 0x0U,
  0x3f000000430f31ecU, 0x41e80000U, 0x0U, 0x4274000042160000U,
  0x0U, 0x4375e7aeU, 0x3f00000000000000U, 0x3fbcd53341e80000U,
  0x3f0000003f000000U, 0x0U, 0x42200000U, 0x41d8e16000000000U,
  0x423a0000U, 0x0U, 0x0U, 0x422e000042e82e14U,
  0x42a033333f000000U, 0x3f00000042440000U, 0x0U, 0x0U,
  0x426175c2U, 0x4219f0a400000000U, 0x3f466666U, 0x421e051f00000000U,
  0x3f00000000000000U, 0x3f00000000000000U, 0x0U, 0x4150000043244f5cU,
  0x40a0000000000000U, 0x426400003f000000U, 0x0U, 0x0U,
  0x428f000000000000U, 0x42607ae13f4c733dU, 0x424c00003f000000U, 0x41e647aeU,
  0x4115333300000000U, 0x41a40000U, 0x4184000000000000U, 0x0U,
  0x40aca3d742220000U, 0x0U, 0x3fbcd53300000000U, 0x4238000042580000U,
  0x4248000000000000U, 0x0U, 0x426e0000418c0000U, 0x0U,
  0x423a000000000000U, 0x3f00000040d00000U, 0x0U, 0x3f000000U,
  0x0U, 0x42c070a4435135c2U, 0x3f000000424a0000U, 0x42500000U,
  0x0U, 0x4213d1eb40200000U, 0x0U, 0x3f00000000000000U,
  0x3f000000U, 0x425e0000U, 0x4343e7ae00000000U, 0x3f000000U,
  0x4344828f00000000U, 0x0U, 0x428700003fc00000U, 0x3f000000439d8cccU,
  0x0U, 0x0U, 0x41b40000423e0000U, 0x4118000000000000U,
  0x0U, 0x438043d6U, 0x40b3851e00000000U, 0x3f00000000000000U,
  0x4297000000000000U, 0x42c2570aU, 0x3f00000040b00000U, 0x0U,
  0x0U, 0x422e00003f4c733dU, 0x420600003f000000U, 0x416a3d704261428fU,
  0x0U, 0x0U, 0x3f000000401e6a99U, 0x4197f5c200000000U,
  0x0U, 0x40600000U, 0x42cd3ae100000000U, 0x426a000041840000U,
  0x4178000000000000U, 0x0U, 0x3f000000U, 0x3f00000000000000U,
  0x3f00000042d97e14U, 0x0U, 0x3f000000U, 0x4328799a00000000U,
  0x3f0000003f000000U, 0x0U, 0x40800000U, 0x3f338cc200000000U,
  0x0U, 0x3f0000003f000000U, 0x4213d1eb426c0000U, 0x0U,
  0x433b51eb00000000U, 0x41c400003fbcd533U, 0x42970000U, 0x42983d7000000000U,
  0x0U, 0x41d13333U, 0x40200000U, 0x3f00000000000000U,
  0x42870000438b751eU, 0x0U, 0x0U, 0x414800003fbcd533U,
  0x4156666600000000U, 0x4298000000000000U, 0x41f40000U, 0x0U,
  0x4178000042ee851fU, 0x0U, 0x434ecf5c42520000U, 0x0U,
  0x3e4e330900000000U, 0x3f0000003f000000U, 0x3f000000429f0000U, 0x431b07ae00000000U,
  0x429b0000U, 0x4287000000000000U, 0x0U, 0x3f000000U,
  0x3fbcd53300000000U, 0x41780000439a447bU, 0x42160000U, 0x433a0e1400000000U,
  0x0U, 0x401e6a9900000000U, 0x4322e00000000000U, 0x4060000000000000U,
  0x0U, 0x42beee143f000000U, 0x42860000U, 0x41c80000U,
  0x42c2400000000000U, 0x4298000000000000U, 0x43349333U, 0x0U,
  0x418c000000000000U, 0x425c851e42870000U, 0x3f000000U, 0x42740000U,
  0x3f00000000000000U, 0x3f00000041800000U, 0x0U, 0x42520000U,
  0x4150000000000000U, 0x4178000000000000U, 0x0U, 0x3f00000000000000U,
  0x42baf8523f000000U, 0x3f338cc200000000U, 0x42da8ccd00000000U, 0x0U,
  0x40c87ae100000000U, 0x407e6a99U, 0x40d0000000000000U, 0x3f000000U,
  0x3f000000U, 0x40f0000000000000U, 0x427e0000U, 0x4108000000000000U,
  0x0U, 0x3f00000042632e14U, 0x422000003f000000U, 0x416a6666U,
  0x3f00000042700000U, 0x0U, 0x41fdb852U, 0x3f00000000000000U,
  0x42800000U, 0x418247ae00000000U, 0x0U, 0x41300000U,
  0x4120000000000000U, 0x3f000000423c0000U, 0x40aca3d7U, 0x422e0000U,
  0x0U, 0x41fc0000U, 0x3f00000000000000U, 0x0U,
  0x3f338cc23f4c733dU, 0x3f00000000000000U, 0x3f00000042720000U, 0x420870b0U,
  0x3f00000000000000U, 0x0U, 0x418c000000000000U, 0x42360000U,
  0x42420000U, 0x40a0000000000000U, 0x0U, 0x414800004349ae14U,
  0x42950000U, 0x4281000000000000U, 0x3f0000003f000000U, 0x0U,
  0x4332f70aU, 0x40f0000000000000U, 0x42970000U, 0x0U,
  0x3f0000003f000000U, 0x4287000000000000U, 0x3f000000U, 0x428c000000000000U,
  0x0U, 0x41c40000U, 0x41dc0000U, 0x4287000000000000U,
  0x4261fae141bc0000U, 0x413a147a41840000U, 0x3f000000U, 0x3f00000000000000U,
  0x4245f5c2U, 0x4172666600000000U, 0x0U, 0x3e4e330900000000U,
  0x3f000000438d4000U, 0x3fbcd533U, 0x426e000000000000U, 0x0U,
  0x4238000000000000U, 0x3f00000000000000U, 0x42760000U, 0x0U,
  0x3fbcd5333e4e3309U, 0x431da6663f000000U, 0x426c0000U, 0x421e000000000000U,
  0x0U, 0x4327a1473f000000U, 0x0U, 0x41d4e16000000000U,
  0x4222000041cc0000U, 0x0U, 0x4342ab8500000000U, 0x40200000U,
  0x40a0000000000000U, 0x0U, 0x41d4e160426df2e2U, 0x42b63d7000000000U,
  0x422e0000U, 0x4258000000000000U, 0x0U, 0x40e7ae14U,
  0x429f000000000000U, 0x427f851eU, 0x41a4000041180000U, 0x429400003f000000U,
  0x0U, 0x40900000U, 0x429b000000000000U, 0x422a0000U,
  0x0U, 0x41480000U, 0x3f00000000000000U, 0x42a7000000000000U,
  0x3f000000U, 0x40400000U, 0x415e6666U, 0x0U,
  0x428b00003e4e3309U, 0x3f00000042e5828fU, 0x427c70b03f000000U, 0x0U,
  0x41dc000042660000U, 0x0U, 0x42a81eb8U, 0x0U,
  0x414c0000U, 0x3f00000042220000U, 0x436d95c2U, 0x0U,
  0x415ccccdU, 0x3f000000U, 0x4060000000000000U, 0x3f0000003f000000U,
  0x4298000000000000U, 0x3fc00000U, 0x434c0b8500000000U, 0x0U,
  0x4294000042970000U, 0x43369d70U, 0x42b263d700000000U, 0x0U,
  0x4198cccc429f0000U, 0x0U, 0x41a80000U, 0x415e666600000000U,
  0x429e000000000000U, 0x0U, 0x422000003f000000U, 0x3f00000000000000U,
  0x423e000041dc0000U, 0x0U, 0x41b4000000000000U, 0x425c000042760000U,
  0x0U, 0x41780000U, 0x0U, 0x40aca3d7U,
  0x3f00000041840000U, 0x3f000000U, 0x425a000000000000U, 0x0U,
  0x3f000000U, 0x3fbcd53342240000U, 0x0U, 0x40900000U,
  0x3e4e330900000000U, 0x4118000041280000U, 0x409000003fbcd533U, 0x42d95eb800000000U,
  0x0U, 0x0U, 0x3f00000042870000U, 0x421a000042220000U,
  0x41bc0000U, 0x0U, 0x41400000418c3d70U, 0x0U,
  0x3f000000U, 0x3fc0000000000000U, 0x425e0000438648f6U, 0x0U,
  0x4060000000000000U, 0x423c0000U, 0x0U, 0x3f0000003f000000U,
  0x429b000000000000U, 0x41a40000U, 0x42be8f5c00000000U, 0x0U,
  0x41f40000428f0000U, 0x42a0547aU, 0x0U, 0x418c000000000000U,
  0x411533333f000000U, 0x4184000000000000U, 0x42c50a3d42720000U, 0x0U,
  0x3f00000000000000U, 0x0U, 0x42b1b0a43f000000U, 0x4150000000000000U,
  0x0U, 0x40aca3d700000000U, 0x407e6a99U, 0x42873ae100000000U,
  0x3f000000U, 0x421b8a3d3ffcd533U, 0x0U, 0x3f00000000000000U,
  0x3f00000042ebcfffU, 0x0U, 0x40400000U, 0x428edc2900000000U,
  0x0U, 0x42efe666428f0000U, 0x419400003e4e3309U, 0x41100000U,
  0x417266663fbcd533U, 0x0U, 0x4281000000000000U, 0x426a00003fbcd533U,
  0x0U, 0x42dbeeb7U, 0x41b0000000000000U, 0x42e13ae1U,
  0x3f00000000000000U, 0x0U, 0x3f000000424e0000U, 0x40b000003f000000U,
  0x0U, 0x40ee6666U, 0x0U, 0x42145c28426c0000U,
  0x0U, 0x3f00000000000000U, 0x3f000000U, 0x425e00003e4e3309U,
  0x41980000U, 0x42f34a3d00000000U, 0x0U, 0x424200003e98e67bU,
  0x0U, 0x4100000000000000U, 0x417800003f000000U, 0x41580000U,
  0x0U, 0x41200000431b75c2U, 0x0U, 0x438b751eU,
  0x0U, 0x3f00000043452b85U, 0x42a50000U, 0x4142ccccU,
  0x0U, 0x3f000000U, 0x4287000000000000U, 0x3f0000003f4c733dU,
  0x4117d70a42f03333U, 0x426c0000U, 0x41280000U, 0x424a000000000000U,
  0x0U, 0x41580000U, 0x4060000043594000U, 0x0U,
  0x3fbcd53300000000U, 0x41dc000042b1b0a4U, 0x416b0a3dU, 0x0U,
  0x3f00000000000000U, 0x41d4000000000000U, 0x41ac0000U, 0x0U,
  0x42e5828f3f000000U, 0x4282000040200000U, 0x41bce160U, 0x0U,
  0x3f00000000000000U, 0x3f000000U, 0x41a40000U, 0x3f00000000000000U,
  0x423e000000000000U, 0x0U, 0x425e00004388270aU, 0x4158000000000000U,
  0x4020000000000000U, 0x0U, 0x3f00000000000000U, 0x42cd970a42970000U,
  0x41500000U, 0x3f000000U, 0x426751ebU, 0x4060000000000000U,
  0x428900003ffcd533U, 0x0U, 0x0U, 0x3f00000040600000U,
  0x42a06e1400000000U, 0x3f000000U, 0x0U, 0x40900000U,
  0x42cc800000000000U, 0x428a000000000000U, 0x4309628fU, 0x0U,
  0x3e4e330942760000U, 0x3f00000042220000U, 0x433e8e14U, 0x40200000U,
  0x0U, 0x3f000000415b3333U, 0x3f000000426a0000U, 0x0U,
  0x3f000000U, 0x0U, 0x430747ae41dc0000U, 0x42d3df5bU,
  0x4262000000000000U, 0x0U, 0x4236000040b00000U, 0x0U,
  0x425e0000U, 0x3f00000000000000U, 0x3f0000004110b851U, 0x0U,
  0x431c3851U, 0x41800000U, 0x4321d851U, 0x426e000000000000U,
  0x3f000000421b23d7U, 0x0U, 0x41580000U, 0x42580000U,
  0x415c000000000000U, 0x42ba47ae00000000U, 0x0U, 0x3f000000428f0000U,
  0x41840000427a0000U, 0x4194000000000000U, 0x0U, 0x4283000000000000U,
  0x4152666641bc0000U, 0x3f00000000000000U, 0x0U, 0x420e0000U,
  0x42800000U, 0x41e8000000000000U, 0x4113999942b70000U, 0x0U,
  0x42870000U, 0x3f00000000000000U, 0x3fc0000000000000U, 0x0U,
  0x3f000000U, 0x3f0000003f000000U, 0x4293000000000000U, 0x4339f47b00000000U,
  0x0U, 0x421e0000426ed1ebU, 0x4242000000000000U, 0x0U,
  0x42940000U, 0x41800000U, 0x42e6199900000000U, 0x422e00003f4c733dU,
  0x425c851e41cce160U, 0x41a80000U, 0x4224000000000000U, 0x0U,
  0x3f000000U, 0x41b4000000000000U, 0x3f00000041ac0000U, 0x427a000000000000U,
  0x0U, 0x3f000000U, 0x3f00000000000000U, 0x0U,
  0x402000003f000000U, 0x4262000041c26666U, 0x419e000000000000U, 0x0U,
  0x429a00004295570aU, 0x0U, 0x41d0000000000000U, 0x423c000000000000U,
  0x4140000000000000U, 0x0U, 0x42860000U, 0x41a51eb8U,
  0x4287000000000000U, 0x3f00000041580000U, 0x414c0000U, 0x0U,
  0x426a00003f000000U, 0x41a80000U, 0x431af70aU, 0x0U,
  0x3fbcd5333f000000U, 0x42780000U, 0x423e000000000000U, 0x0U,
  0x430898523f000000U, 0x0U, 0x4226000000000000U, 0x3f000000U,
  0x41bc000041dc0000U, 0x3f000000U, 0x428d000000000000U, 0x0U,
  0x3f00000000000000U, 0x0U, 0x3e4e330942760000U, 0x3fbcd53342f3970aU,
  0x4264bd70U, 0x426a0000U, 0x3f000000U, 0x42d3df5b00000000U,
  0x41e800003f000000U, 0x0U, 0x0U, 0x4305fae1U,
  0x4256000042620000U, 0x42220000U, 0x3f00000000000000U, 0x0U,
  0x4360e28f3f000000U, 0x0U, 0x426ff2e200000000U, 0x422e000042fcfd70U,
  0x3f0000004177eb85U, 0x0U, 0x42440000U, 0x3f00000000000000U,
  0x426a000000000000U, 0x0U, 0x41580000U, 0x3f0000003e98e67bU,
  0x0U, 0x3fc0000000000000U, 0x42fde8f63f000000U, 0x42d37ae1U,
  0x0U, 0x0U, 0x42f03333418c0000U, 0x42b37852U,
  0x42bdbd7042840000U, 0x0U, 0x41680000U, 0x4380ea3d00000000U,
  0x3f0000003f000000U, 0x429e000000000000U, 0x0U, 0x0U,
  0x408f333342cd851eU, 0x428c0000429c0000U, 0x0U, 0x3f00000000000000U,
  0x4193cccdU, 0x41d8e16000000000U, 0x429c0000U, 0x41e8000000000000U,
  0x0U, 0x421a000042970000U, 0x42d857ad41e80000U, 0x0U,
  0x0U, 0x42fabae100000000U, 0x40a428f63f000000U, 0x41b80000U,
  0x41ee000000000000U, 0x41bc000000000000U, 0x3f0000003f000000U, 0x0U,
  0x42200000U, 0x4202c7ae00000000U, 0x42dbeeb700000000U, 0x0U,
  0x3fc000003f000000U, 0x4224000041980000U, 0x0U, 0x40935c2942bb547bU,
  0x0U, 0x3f000000U, 0x4020000000000000U, 0x425c0000U,
  0x40d0000000000000U, 0x4287000000000000U, 0x0U, 0x42f5800042870000U,
  0x0U, 0x42d1ee14U, 0x42890000U, 0x4349ae1400000000U,
  0x4184000043151851U, 0x3f0000003f79aa66U, 0x3f000000U, 0x0U,
  0x3f00000000000000U, 0x43011851U, 0x424c0000U, 0x0U,
  0x40d0000042870000U, 0x4184000000000000U, 0x432c0f5cU, 0x431c90a300000000U,
  0x0U, 0x3fbcd533433d31ebU, 0x3ffcd53300000000U, 0x0U,
  0x3f000000U, 0x428b0000U, 0x3f00000000000000U, 0x4128000000000000U,
  0x439d8ccc00000000U, 0x427a000042880000U, 0x0U, 0x0U,
  0x3fbcd53342efe666U, 0x41e8a3d73f000000U, 0x41d4e160U, 0x3f00000041dc0000U,
  0x0U, 0x3f000000U, 0x42c7000000000000U, 0x4297000041c26666U,
  0x0U, 0x3f000000U, 0x0U, 0x3f000000420c0000U,
  0x4198000042e163d7U, 0x0U, 0x42c0e3d700000000U, 0x3f00000000000000U,
  0x0U, 0x3f000000U, 0x3f00000000000000U, 0x40dbffff3f000000U,
  0x41d0e16000000000U, 0x41c80000U, 0x0U, 0x40b0000042760000U,
  0x3f000000U, 0x4268000000000000U, 0x0U, 0x0U,
  0x3f00000041380000U, 0x3f000000U, 0x41180000U, 0x4357a7ae00000000U,
  0x0U, 0x427000003f4c733dU, 0x424e00003f000000U, 0x3f000000U,
  0x0U, 0x419c0000U, 0x3f00000000000000U, 0x4328799a00000000U,
  0x428e0000U, 0x0U, 0x3f00000042980000U, 0x42160000U,
  0x3fbcd533U, 0x427e000000000000U, 0x421a0000U, 0x41e0e16000000000U,
  0x0U, 0x4315a000U, 0x3e4e330900000000U, 0x3f0000003f000000U,
  0x428f000000000000U, 0x438a6e1442560000U, 0x4308228fU, 0x4228000000000000U,
  0x0U, 0x43022666425a0000U, 0x0U, 0x3f000000U,
  0x429e000000000000U, 0x4212000042cdca3dU, 0x0U, 0x4325a3d7U,
  0x3f00000000000000U, 0x0U, 0x425e000041e00000U, 0x3f00000000000000U,
  0x42830000428b0000U, 0x0U, 0x43360666U, 0x41b8000000000000U,
  0x42640000U, 0x0U, 0x4226000000000000U, 0x411f33333ffcd533U,
  0x3f00000000000000U, 0x3f000000U, 0x41c4000000000000U, 0x0U,
  0x3f000000U, 0x424af5c2U, 0x40a00000U, 0x4289000000000000U,
  0x418c000042fcfd70U, 0x42ca11eb41780000U, 0x0U, 0x3f000000U,
  0x3f00000000000000U, 0x3f000000U, 0x0U, 0x4168000041d4e160U,
  0x3f000000U, 0x0U, 0x3f00000000000000U, 0x0U,
  0x428700003e4e3309U, 0x41a4000041d0e160U, 0x3f0000003f000000U, 0x419c000000000000U,
  0x0U, 0x3f00000042800000U, 0x0U, 0x3fc00000U,
  0x4383f99900000000U, 0x42240000U, 0x3fbcd533U, 0x0U,
  0x422400003f000000U, 0x3ffcd53300000000U, 0x3f000000U, 0x42b9b85200000000U,
  0x0U, 0x4268000042120000U, 0x42f5a14700000000U, 0x0U,
  0x429f000000000000U, 0x429b00003f000000U, 0x428b0000U, 0x428d0000U,
  0x42be8f5c00000000U, 0x0U, 0x41980000U, 0x428d0000U,
  0x41f40000U, 0x3f00000000000000U, 0x0U, 0x4184000040900000U,
  0x430af70a3f000000U, 0x42340000U, 0x425e000000000000U, 0x0U,
  0x4175851e42a723d7U, 0x0U, 0x42720000U, 0x3f00000000000000U,
  0x42300000416a3d70U, 0x4100b85200000000U, 0x0U, 0x3f00000000000000U,
  0x0U, 0x425c000041080000U, 0x42c34a3d00000000U, 0x426e0000U,
  0x3f00000000000000U, 0x41940000U, 0x0U, 0x3e4e330900000000U,
  0x402000003f000000U, 0x428f00003fbcd533U, 0x42620000U, 0x3f000000U,
  0x433fcf5c00000000U, 0x421e0000U, 0x4298000000000000U, 0x0U,
  0x42dbeeb7432e95c2U, 0x3ffcd533U, 0x41f0000000000000U, 0x0U,
  0x4290000000000000U, 0x3f00000042760000U, 0x0U, 0x43011851U,
  0x4090000000000000U, 0x40600000U, 0x429d000000000000U, 0x0U,
  0x3f00000041cce160U, 0x3f000000U, 0x0U, 0x42160000U,
  0x41d4e160U, 0x423e00004382151eU, 0x0U, 0x4399028fU,
  0x422e000000000000U, 0x403e6a9941cce160U, 0x418d9999420e0000U, 0x0U,
  0x0U, 0x4168000000000000U, 0x3f79aa6642c50a3dU, 0x0U,
  0x41140000U, 0x414c0000U, 0x42540000U, 0x4289000000000000U,
  0x41a8000042260000U, 0x3f000000U, 0x40d0000000000000U, 0x0U,
  0x429ddc29U, 0x0U, 0x42521eb83f000000U, 0x41c400003f000000U,
  0x4281000000000000U, 0x41e100003f800000U, 0x0U, 0x3f00000000000000U,
  0x429f0000U, 0x0U, 0x4287000000000000U, 0x439d8ccc3fbcd533U,
  0x425e000041a40000U, 0x0U, 0x41d4e160U, 0x0U,
  0x41d4e1604343f47bU, 0x3f000000U, 0x4301185100000000U, 0x0U,
  0x401e6a99U, 0x42320000U, 0x40d0000000000000U, 0x3f00000041680000U,
  0x42970000U, 0x0U, 0x3f000000429070a4U, 0x0U,
  0x3f000000U, 0x4148000000000000U, 0x0U, 0x418c000042cd3ae1U,
  0x3fc00000422e0000U, 0x0U, 0x3f00000041780000U, 0x0U,
  0x424e000000000000U, 0x4226614841dc0000U, 0x41ad9999U, 0x0U,
  0x3f000000U, 0x4226000000000000U, 0x3f000000U, 0x0U,
  0x428f0000433d9eb8U, 0x3f0000003f000000U, 0x3f00000000000000U, 0x0U,
  0x41b8e1603f000000U, 0x0U, 0x42100000U, 0x0U,
  0x3e4e330900000000U, 0x3f0000003f000000U, 0x431ec00000000000U, 0x3f000000428d0000U,
  0x3fbcd533U, 0x0U, 0x419270a442280000U, 0x0U,
  0x42360000U, 0x3f00000000000000U, 0x4158000042840000U, 0x0U,
  0x40400000U, 0x438a6e1400000000U, 0x4325ce14U, 0x0U,
  0x3f000000428d0000U, 0x424a000042720000U, 0x435b7d70U, 0x419c000000000000U,
  0x0U, 0x428200003f000000U, 0x0U, 0x0U,
  0x42930000U, 0x418400003f000000U, 0x0U, 0x427a000000000000U,
  0x41153333418c0000U, 0x3f00000000000000U, 0x42bbdc2942760000U, 0x0U,
  0x4272000000000000U, 0x41c670a4U, 0x4180000000000000U, 0x0U,
  0x3f0000003f000000U, 0x3f000000424a0000U, 0x0U, 0x40b00000U,
  0x0U, 0x0U, 0x3f0000003e4e3309U, 0x3f00000042f64a3dU,
  0x3f0000003f000000U, 0x426a0000U, 0x40be8f5b00000000U, 0x0U,
  0x41c0000042cdca3dU, 0x0U, 0x429d0000U, 0x42f2028f00000000U,
  0x41980000U, 0x42740000U, 0x3f80000000000000U, 0x4281000000000000U,
  0x0U, 0x3f000000415b3333U, 0x42660000U, 0x427e000000000000U,
  0x0U, 0x430851eb418c0000U, 0x0U, 0x402000003f000000U,
  0x0U, 0x40600000U, 0x41c0000000000000U, 0x433ace14U,
  0x433e8e14U, 0x3f000000435247aeU, 0x0U, 0x422e0000U,
  0x42cc885100000000U, 0x3f00000000000000U, 0x4118000042220000U, 0x0U,
  0x4384c14700000000U, 0x0U, 0x3fbcd533418c0000U, 0x41440000U,
  0x3f0000004255e147U, 0x42600000U, 0x0U, 0x425e0000U,
  0x42d10ccdU, 0x401e6a9900000000U, 0x0U, 0x424a00003ffcd533U,
  0x41e4000042440000U, 0x416a3d70U, 0x4222000000000000U, 0x0U,
  0x42c7cccd00000000U, 0x42cf6e1400000000U, 0x0U, 0x3f00000000000000U,
  0x3f00000041d0e160U, 0x3f00000000000000U, 0x42c087ae3f000000U, 0x4272000000000000U,
  0x0U, 0x411851ebU, 0x42260000U, 0x3f00000000000000U,
  0x419c000042980000U, 0x0U, 0x41d9851eU, 0x3f00000000000000U,
  0x422e0000U, 0x41ac000000000000U, 0x0U, 0x40b000003f4c733dU,
  0x40f0000000000000U, 0x424af5c2U, 0x42540000U, 0x0U,
  0x41c6ae144323a28fU, 0x3f000000U, 0x3f00000000000000U, 0x40600000U,
  0x42cc885100000000U, 0x0U, 0x420c0000U, 0x437e866642850000U,
  0x0U, 0x4276000000000000U, 0x4245f5c2U, 0x3f0000004324acccU,
  0x41300000U, 0x4090000000000000U, 0x42b1b0a4U, 0x0U,
  0x416800003f4c733dU, 0x425c0000U, 0x0U, 0x3f000000425e0000U,
  0x0U, 0x42680000U, 0x4184000000000000U, 0x3f000000428b0000U,
  0x42d8385100000000U, 0x0U, 0x42950000U, 0x432e651e00000000U,
  0x41963d7041a51eb8U, 0x0U, 0x3f000000U, 0x4287000000000000U,
  0x3f00000000000000U, 0x0U, 0x3e4e330942ef3d70U, 0x417999993f000000U,
  0x429f000000000000U, 0x40b00000429b0000U, 0x0U, 0x41a8000000000000U,
  0x0U, 0x428100003f000000U, 0x41a51eb800000000U, 0x42d1ee1400000000U,
  0x0U, 0x3f00000000000000U, 0x42c0fd70U, 0x42d6828f40900000U,
  0x3f000000U, 0x0U, 0x40aca3d700000000U, 0x421e000000000000U,
  0x424af5c2U, 0x3f000000U, 0x3f00000000000000U, 0x0U,
  0x3f00000042970000U, 0x3f00000042220000U, 0x41a000003f000000U, 0x0U,
  0x432cf5c2U, 0x0U, 0x3f000000U, 0x4308228f41a40000U,
  0x0U, 0x422a0000U, 0x3f4c733d00000000U, 0x43260a3d40400000U,
  0x4256000000000000U, 0x0U, 0x428a0000U, 0x428f000000000000U,
  0x424a0000425e0000U, 0x0U, 0x430855c2U, 0x4293000000000000U,
  0x0U, 0x3e4e330900000000U, 0x3f0000003f000000U, 0x42640000U,
  0x42700000U, 0x4266000000000000U, 0x4308228f437e8666U, 0x42320000U,
  0x0U, 0x42160000U, 0x4297000000000000U, 0x4294000042140000U,
  0x0U, 0x418247ae00000000U, 0x429cd99900000000U, 0x0U,
  0x436b970a3f000000U, 0x4020000040600000U, 0x3f000000U, 0x43324e1400000000U,
  0x0U, 0x0U, 0x4190000000000000U, 0x425c851e42320000U,
  0x0U, 0x42c50a3d41780000U, 0x4272000000000000U, 0x42e8f5c2U,
  0x3f00000000000000U, 0x0U, 0x3f000000U, 0x4184000040000000U,
  0x0U, 0x42d8385200000000U, 0x3fbcd5333ffcd533U, 0x3f00000000000000U,
  0x41a8000000000000U, 0x0U, 0x3f000000U, 0x41d4e16000000000U,
  0x43216e1400000000U, 0x0U, 0x428d000042e7a666U, 0x424e000041b40000U,
  0x40c4cccc3ffcd533U, 0x4255051e00000000U, 0x0U, 0x3f00000000000000U,
  0x4251570aU, 0x42ddf333U, 0x4141eb8500000000U, 0x3f00000000000000U,
  0x0U, 0x419400003f000000U, 0x428b000042240000U, 0x0U,
  0x42760000U, 0x0U, 0x42a23d703f000000U, 0x0U,
  0x3f000000U, 0x3f00000000000000U, 0x42ce4000421c0000U, 0x41b000004295e8f5U,
  0x0U, 0x42d8266600000000U, 0x0U, 0x423c0000U,
  0x0U, 0x436b147b3e4e3309U, 0x428700003f000000U, 0x40e0000042080000U,
  0x0U, 0x42520000U, 0x4295000000000000U, 0x41b4000000000000U,
  0x0U, 0x42850000436455c2U, 0x427a0000U, 0x428e000000000000U,
  0x0U, 0x4288000000000000U, 0x41cce160439d8cccU, 0x41c00000U,
  0x40b0000000000000U, 0x0U, 0x0U, 0x427600004327e148U,
  0x41800000U, 0x0U, 0x3f000000U, 0x425a00003f79aa66U,
  0x0U, 0x3f4c733d00000000U, 0x401e6a9942220000U, 0x420e00003f000000U,
  0x0U, 0x420e000000000000U, 0x3f00000000000000U, 0x0U,
  0x4184000042850000U, 0x411a3d70U, 0x42ca11ebU, 0x42f5f5c2U,
  0x3f00000000000000U, 0x42ebcfffU, 0x3f000000U, 0x3f00000000000000U,
  0x40b00000U, 0x422e000000000000U, 0x0U, 0x4287000000000000U,
  0x3f0000003fbcd533U, 0x3f0000004321a8f6U, 0x426a0000U, 0x3f00000000000000U,
  0x0U, 0x426a0000439d8cccU, 0x0U, 0x4382dd7000000000U,
  0x42f4deb8U, 0x426e0000U, 0x0U, 0x426000003f000000U,
  0x3ffcd53340c00000U, 0x0U, 0x41180000U, 0x3f00000000000000U,
  0x4282000000000000U, 0x0U, 0x420200004374251fU, 0x433be8f5U,
  0x0U, 0x42340000U, 0x4168000000000000U, 0x3f00000000000000U,
  0x4208851f42cdca3dU, 0x41d40000U, 0x0U, 0x42d82eb742970000U,
  0x0U, 0x42f48a3d00000000U, 0x428b0000U, 0x3f79aa66U,
  0x43027ae100000000U, 0x4336066600000000U, 0x0U, 0x428700003e4e3309U,
  0x3fbcd533426a0000U, 0x41cc0000439d8cccU, 0x3f000000U, 0x424a000000000000U,
  0x0U, 0x3f00000000000000U, 0x42d3df5b41d4e160U, 0x0U,
  0x40a00000U, 0x41ac000000000000U, 0x4020000000000000U, 0x0U,
  0x42a81eb842140000U, 0x40a00000U, 0x3f00000000000000U, 0x41380000U,
  0x41d0000000000000U, 0x0U, 0x428b91ebU, 0x3fc00000U,
  0x42cd970a00000000U, 0x3f000000419fe147U, 0x3f000000U, 0x4060000000000000U,
  0x0U, 0x41e0e160U, 0x3f000000428d0000U, 0x0U,
  0x435cb99900000000U, 0x41cce16042970000U, 0x40400000U, 0x4218000000000000U,
  0x0U, 0x0U, 0x418c000042fcfd70U, 0x3f00000041780000U,
  0x42b6028f00000000U, 0x0U, 0x3fc000003f000000U, 0x3f000000U,
  0x0U, 0x42760000U, 0x40aca3d700000000U, 0x404b3333U,
  0x3f00000000000000U, 0x41b4000000000000U, 0x42109eb8U, 0x0U,
  0x3f338cc2U, 0x3f00000043260a3dU, 0x3f0000003f000000U, 0x0U,
  0x425a000000000000U, 0x0U, 0x3e4e330900000000U, 0x428b00003f000000U,
  0x3f000000423e0000U, 0x42020000U, 0x0U, 0x3fbcd53342760000U,
  0x3f000000U, 0x3f00000000000000U, 0x0U, 0x428900003fbcd533U,
  0x0U, 0x3f000000U, 0x428f000000000000U, 0x41a51eb8432e651eU,
  0x3f000000U, 0x0U, 0x0U, 0x3f00000041e80000U,
  0x4060000042970000U, 0x41d4e160U, 0x0U, 0x4308228f00000000U,
  0x42c3547bU, 0x4313f5c200000000U, 0x0U, 0x3f0000003f000000U,
  0x41fc0000425e0000U, 0x0U, 0x0U, 0x40d0000042a90000U,
  0x430f5ae1U, 0x0U, 0x42f0333300000000U, 0x4110b85142c35c29U,
  0x41a40000U, 0x3f00000000000000U, 0x4219f0a4U, 0x41880000U,
  0x424e000000000000U, 0x3f000000U, 0x0U, 0x3f0000003f000000U,
  0x41b8e1603f000000U, 0x0U, 0x0U, 0x42dbbd70U,
  0x4288000000000000U, 0x41580000U, 0x3f0000003e98e67bU, 0x3f00000000000000U,
  0x0U, 0x0U, 0x3f4c733d42ee5999U, 0x41b4000042890000U,
  0x4115333342c0e3d7U, 0x41ad999900000000U, 0x0U, 0x42740000U,
  0x42850000U, 0x3f00000000000000U, 0x424e000000000000U, 0x41cce160U,
  0x4298000000000000U, 0x0U, 0x3f00000000000000U, 0x4118000041500000U,
  0x0U, 0x3f0000003f000000U, 0x42128000U, 0x418d28f500000000U,
  0x0U, 0x41bc000042a80000U, 0x0U, 0x42d5951e00000000U,
  0x40f7d70aU, 0x0U, 0x427e000042870000U, 0x3f0000003e4e3309U,
  0x3f000000U, 0x3f000000U, 0x437e933300000000U, 0x41a40000U,
  0x4216000000000000U, 0x0U, 0x4158000043260a3dU, 0x3f00000000000000U,
  0x0U, 0x41f0000000000000U, 0x41a8000042830000U, 0x3f000000U,
  0x0U, 0x431478513f000000U, 0x0U, 0x4307970a00000000U,
  0x0U, 0x3f00000040f00000U, 0x4290000041940000U, 0x0U,
  0x428d000000000000U, 0x4310a0003f000000U, 0x0U, 0x0U,
  0x3f4c733d00000000U, 0x4219f0a442f03333U, 0x42280000422e0000U, 0x0U,
  0x3f00000000000000U, 0x3f0000003f000000U, 0x4284000000000000U, 0x0U,
  0x4274000000000000U, 0x422d3852U, 0x426c0000U, 0x0U,
  0x40a000003f000000U, 0x4232000043262666U, 0x0U, 0x0U,
  0x424e0000U, 0x3f338cc2U, 0x3f000000409f354cU, 0x0U,
  0x3f00000000000000U, 0x41883d7042870000U, 0x3f000000U, 0x4206000042700000U,
  0x0U, 0x411a6666U, 0x3f00000000000000U, 0x41a03d704213d1ebU,
  0x0U, 0x4214000000000000U, 0x3f000000U, 0x3f00000000000000U,
  0x0U, 0x4297000040600000U, 0x42cae666U, 0x42950000U,
  0x0U, 0x42970000U, 0x42040000U, 0x423c0000U,
  0x426c614800000000U, 0x42890000U, 0x41a51eb8U, 0x4020000000000000U,
  0x4383f9993f000000U, 0x42120000U, 0x0U, 0x4222000000000000U,
  0x3f000000U, 0x4128000000000000U, 0x0U, 0x428900003f4c733dU,
  0x424a00003f000000U, 0x42e5eeb700000000U, 0x42c87d70U, 0x42cf6e14U,
  0x4158000000000000U, 0x4286000000000000U, 0x0U, 0x421a0000421e0000U,
  0x0U, 0x426e0000430ad999U, 0x4274000000000000U, 0x0U,
  0x430f6f5c3f000000U, 0x0U, 0x0U, 0x3f0000003f000000U,
  0x3f00000000000000U, 0x41ac0000428d0000U, 0x42724cccU, 0x4266000000000000U,
  0x0U, 0x431b600040600000U, 0x0U, 0x41480000U,
  0x423e000000000000U, 0x3f00000041ac0000U, 0x0U, 0x0U,
  0x3ffcd53340800000U, 0x42159999428f0000U, 0x41a51eb8U, 0x3f00000000000000U,
  0x0U, 0x42950000U, 0x4020000000000000U, 0x42760000U,
  0x4286000000000000U, 0x43324e14U, 0x0U, 0x3e4e330900000000U,
  0x428f0000433a83d7U, 0x41d0e16042760000U, 0x3ffcd53343301999U, 0x0U,
  0x3f000000U, 0x42d19a3d00000000U, 0x3f000000U, 0x3ffcd53300000000U,
  0x0U, 0x3ffcd5334326eccdU, 0x42890000U, 0x427a000000000000U,
  0x0U, 0x3f00000000000000U, 0x4297000000000000U, 0x42c2570aU,
  0x41d80000U, 0x3f00000000000000U, 0x429b0000U, 0x0U,
  0x3fbcd533438a6e14U, 0x41300000U, 0x420e000042870000U, 0x0U,
  0x3f000000U, 0x434b63d700000000U, 0x401e6a993f000000U, 0x0U,
  0x424e000000000000U, 0x3f000000U, 0x0U, 0x41840000U,
  0x3f000000U, 0x3f800000U, 0x4168000000000000U, 0x42c461483f000000U,
  0x3f00000000000000U, 0x0U, 0x42f0333300000000U, 0x41dc0000422e0000U,
  0x3f0000003ffcd533U, 0x0U, 0x0U, 0x3f000000U,
  0x4288000000000000U, 0x4060000042760000U, 0x43244f5cU, 0x0U,
  0x0U, 0x430118513e4e3309U, 0x4295570a3f000000U, 0x417a8f5b426c0a3dU,
  0x3f000000U, 0x428f000000000000U, 0x0U, 0x428bae1442a00000U,
  0x0U, 0x4188000000000000U, 0x4180cccc41920000U, 0x0U,
  0x0U, 0x42e9f0a441cc0000U, 0x3f80000000000000U, 0x42760000U,
  0x0U, 0x42b2cf5c3fbcd533U, 0x0U, 0x43881eb800000000U,
  0x3f000000436b147bU, 0x42160000428b0000U, 0x0U, 0x41e4000000000000U,
  0x41680000U, 0x3fc0000000000000U, 0x0U, 0x3f0000003f000000U,
  0x3f000000U, 0x0U, 0x438cd00000000000U, 0x3f00000000000000U,
  0x4184000000000000U, 0x0U, 0x422e000042c35c29U, 0x3f000000U,
  0x4184851eU, 0x423f0f5cU, 0x418c0000U, 0x41131eb800000000U,
  0x4104a3d6U, 0x3fbcd53300000000U, 0x3ffcd53300000000U, 0x41a80000U,
  0x3f00000000000000U, 0x0U, 0x42760000428a0000U, 0x4158000041840000U,
  0x3e98e67b00000000U, 0x0U, 0x3f000000U, 0x41b8e16000000000U,
  0x3f000000U, 0x4285000000000000U, 0x0U, 0x3e4e330900000000U,
  0x431e0b853f000000U, 0x42a9000042071eb8U, 0x3f00000042700000U, 0x0U,
